{
  "version": "1.0",
  "truncation": null,
  "padding": null,
  "added_tokens": [
    {
      "id": 0,
      "content": "[PAD]",
      "single_word": false,
      "lstrip": false,
      "rstrip": false,
      "normalized": false,
      "special": true
    },
    {
      "id": 1,
      "content": "[UNK]",
      "single_word": false,
      "lstrip": false,
      "rstrip": false,
      "normalized": false,
      "special": true
    },
    {
      "id": 2,
      "content": "[BOS]",
      "single_word": false,
      "lstrip": false,
      "rstrip": false,
      "normalized": false,
      "special": true
    },
    {
      "id": 3,
      "content": "[EOS]",
      "single_word": false,
      "lstrip": false,
      "rstrip": false,
      "normalized": false,
      "special": true
    },
    {
      "id": 4,
      "content": "<user>",
      "single_word": false,
      "lstrip": false,
      "rstrip": false,
      "normalized": false,
      "special": true
    },
    {
      "id": 5,
      "content": "<assistant>",
      "single_word": false,
      "lstrip": false,
      "rstrip": false,
      "normalized": false,
      "special": true
    },
    {
      "id": 6,
      "content": "<eos>",
      "single_word": false,
      "lstrip": false,
      "rstrip": false,
      "normalized": false,
      "special": true
    }
  ],
  "normalizer": null,
  "pre_tokenizer": {
    "type": "Whitespace"
  },
  "post_processor": {
    "type": "TemplateProcessing",
    "single": [
      {
        "SpecialToken": {
          "id": "[BOS]",
          "type_id": 0
        }
      },
      {
        "Sequence": {
          "id": "A",
          "type_id": 0
        }
      },
      {
        "SpecialToken": {
          "id": "[EOS]",
          "type_id": 0
        }
      }
    ],
    "pair": [
      {
        "SpecialToken": {
          "id": "[BOS]",
          "type_id": 0
        }
      },
      {
        "Sequence": {
          "id": "A",
          "type_id": 0
        }
      },
      {
        "SpecialToken": {
          "id": "[EOS]",
          "type_id": 0
        }
      },
      {
        "Sequence": {
          "id": "B",
          "type_id": 1
        }
      },
      {
        "SpecialToken": {
          "id": "[EOS]",
          "type_id": 1
        }
      }
    ],
    "special_tokens": {
      "[BOS]": {
        "id": "[BOS]",
        "ids": [
          2
        ],
        "tokens": [
          "[BOS]"
        ]
      },
      "[EOS]": {
        "id": "[EOS]",
        "ids": [
          3
        ],
        "tokens": [
          "[EOS]"
        ]
      }
    }
  },
  "decoder": null,
  "model": {
    "type": "BPE",
    "dropout": null,
    "unk_token": "[UNK]",
    "continuing_subword_prefix": null,
    "end_of_word_suffix": null,
    "fuse_unk": false,
    "byte_fallback": false,
    "ignore_merges": false,
    "vocab": {
      "[PAD]": 0,
      "[UNK]": 1,
      "[BOS]": 2,
      "[EOS]": 3,
      "<user>": 4,
      "<assistant>": 5,
      "<eos>": 6,
      "!": 7,
      "\"": 8,
      "#": 9,
      "$": 10,
      "%": 11,
      "&": 12,
      "'": 13,
      "(": 14,
      ")": 15,
      "*": 16,
      "+": 17,
      ",": 18,
      "-": 19,
      ".": 20,
      "/": 21,
      "0": 22,
      "1": 23,
      "2": 24,
      "3": 25,
      "4": 26,
      "5": 27,
      "6": 28,
      "7": 29,
      "8": 30,
      "9": 31,
      ":": 32,
      ";": 33,
      "<": 34,
      ">": 35,
      "?": 36,
      "A": 37,
      "B": 38,
      "C": 39,
      "D": 40,
      "E": 41,
      "F": 42,
      "G": 43,
      "H": 44,
      "I": 45,
      "J": 46,
      "K": 47,
      "L": 48,
      "M": 49,
      "N": 50,
      "O": 51,
      "P": 52,
      "Q": 53,
      "R": 54,
      "S": 55,
      "T": 56,
      "U": 57,
      "V": 58,
      "W": 59,
      "X": 60,
      "Y": 61,
      "Z": 62,
      "[": 63,
      "\\": 64,
      "]": 65,
      "_": 66,
      "`": 67,
      "a": 68,
      "b": 69,
      "c": 70,
      "d": 71,
      "e": 72,
      "f": 73,
      "g": 74,
      "h": 75,
      "i": 76,
      "j": 77,
      "k": 78,
      "l": 79,
      "m": 80,
      "n": 81,
      "o": 82,
      "p": 83,
      "q": 84,
      "r": 85,
      "s": 86,
      "t": 87,
      "u": 88,
      "v": 89,
      "w": 90,
      "x": 91,
      "y": 92,
      "z": 93,
      "|": 94,
      "~": 95,
      "¡": 96,
      "¢": 97,
      "¦": 98,
      "©": 99,
      "«": 100,
      "­": 101,
      "¯": 102,
      "±": 103,
      "³": 104,
      "´": 105,
      "¶": 106,
      "»": 107,
      "Â": 108,
      "Ã": 109,
      "ß": 110,
      "â": 111,
      "ç": 112,
      "é": 113,
      "ñ": 114,
      "œ": 115,
      "Š": 116,
      "˜": 117,
      "‚": 118,
      "“": 119,
      "”": 120,
      "•": 121,
      "…": 122,
      "‰": 123,
      "‹": 124,
      "€": 125,
      "™": 126,
      "an": 127,
      "er": 128,
      "th": 129,
      "is": 130,
      "in": 131,
      "ou": 132,
      "as": 133,
      "us": 134,
      "ant": 135,
      "at": 136,
      "to": 137,
      "ist": 138,
      "re": 139,
      "ass": 140,
      "istant": 141,
      "assistant": 142,
      "user": 143,
      "you": 144,
      "the": 145,
      "ing": 146,
      "ve": 147,
      "he": 148,
      "or": 149,
      "me": 150,
      "do": 151,
      "it": 152,
      "ll": 153,
      "and": 154,
      "on": 155,
      "ha": 156,
      "ke": 157,
      "ar": 158,
      "es": 159,
      "am": 160,
      "no": 161,
      "my": 162,
      "li": 163,
      "en": 164,
      "ay": 165,
      "oo": 166,
      "ed": 167,
      "ho": 168,
      "lo": 169,
      "are": 170,
      "that": 171,
      "be": 172,
      "so": 173,
      "wh": 174,
      "le": 175,
      "ic": 176,
      "have": 177,
      "al": 178,
      "ch": 179,
      "like": 180,
      "id": 181,
      "of": 182,
      "all": 183,
      "ld": 184,
      "st": 185,
      "not": 186,
      "wi": 187,
      "was": 188,
      "ut": 189,
      "om": 190,
      "for": 191,
      "ly": 192,
      "ver": 193,
      "what": 194,
      "ad": 195,
      "se": 196,
      "ere": 197,
      "ri": 198,
      "we": 199,
      "gh": 200,
      "ne": 201,
      "un": 202,
      "how": 203,
      "go": 204,
      "love": 205,
      "ti": 206,
      "et": 207,
      "out": 208,
      "ood": 209,
      "ac": 210,
      "with": 211,
      "eo": 212,
      "ould": 213,
      "day": 214,
      "ir": 215,
      "wor": 216,
      "The": 217,
      "ry": 218,
      "but": 219,
      "pl": 220,
      "hi": 221,
      "ust": 222,
      "ab": 223,
      "mo": 224,
      "ro": 225,
      "good": 226,
      "sa": 227,
      "oun": 228,
      "eos": 229,
      "work": 230,
      "ght": 231,
      "just": 232,
      "co": 233,
      "very": 234,
      "too": 235,
      "time": 236,
      "ake": 237,
      "your": 238,
      "up": 239,
      "fe": 240,
      "ds": 241,
      "any": 242,
      "some": 243,
      "one": 244,
      "ally": 245,
      "ter": 246,
      "ool": 247,
      "ra": 248,
      "her": 249,
      "ea": 250,
      "ther": 251,
      "play": 252,
      "they": 253,
      "ce": 254,
      "can": 255,
      "gre": 256,
      "thing": 257,
      "sh": 258,
      "ice": 259,
      "ite": 260,
      "pp": 261,
      "now": 262,
      "ame": 263,
      "ily": 264,
      "ur": 265,
      "ook": 266,
      "she": 267,
      "about": 268,
      "get": 269,
      "there": 270,
      "jo": 271,
      "sp": 272,
      "He": 273,
      "She": 274,
      "bi": 275,
      "fa": 276,
      "ge": 277,
      "ow": 278,
      "They": 279,
      "fr": 280,
      "would": 281,
      "ts": 282,
      "want": 283,
      "oh": 284,
      "im": 285,
      "yes": 286,
      "ind": 287,
      "sto": 288,
      "bo": 289,
      "way": 290,
      "fun": 291,
      "well": 292,
      "ent": 293,
      "great": 294,
      "from": 295,
      "fri": 296,
      "fav": 297,
      "said": 298,
      "art": 299,
      "ell": 300,
      "nice": 301,
      "had": 302,
      "frien": 303,
      "them": 304,
      "favor": 305,
      "est": 306,
      "cool": 307,
      "his": 308,
      "de": 309,
      "doing": 310,
      "king": 311,
      "hen": 312,
      "favorite": 313,
      "mom": 314,
      "pe": 315,
      "ate": 316,
      "ack": 317,
      "ck": 318,
      "ort": 319,
      "if": 320,
      "dog": 321,
      "ked": 322,
      "really": 323,
      "will": 324,
      "ul": 325,
      "ure": 326,
      "Lily": 327,
      "ex": 328,
      "its": 329,
      "itt": 330,
      "soun": 331,
      "make": 332,
      "ish": 333,
      "read": 334,
      "wat": 335,
      "ine": 336,
      "pre": 337,
      "did": 338,
      "live": 339,
      "il": 340,
      "lot": 341,
      "car": 342,
      "ers": 343,
      "happ": 344,
      "mus": 345,
      "llo": 346,
      "mu": 347,
      "ink": 348,
      "when": 349,
      "ight": 350,
      "got": 351,
      "ion": 352,
      "could": 353,
      "ough": 354,
      "ong": 355,
      "than": 356,
      "ess": 357,
      "today": 358,
      "big": 359,
      "el": 360,
      "um": 361,
      "ast": 362,
      "ittle": 363,
      "hello": 364,
      "new": 365,
      "ag": 366,
      "music": 367,
      "little": 368,
      "eat": 369,
      "ain": 370,
      "know": 371,
      "sounds": 372,
      "much": 373,
      "ple": 374,
      "ving": 375,
      "ound": 376,
      "where": 377,
      "bl": 378,
      "try": 379,
      "yea": 380,
      "name": 381,
      "kid": 382,
      "see": 383,
      "gr": 384,
      "short": 385,
      "ard": 386,
      "cat": 387,
      "ca": 388,
      "ill": 389,
      "hel": 390,
      "ty": 391,
      "ide": 392,
      "story": 393,
      "ye": 394,
      "joy": 395,
      "more": 396,
      "aw": 397,
      "help": 398,
      "com": 399,
      "sm": 400,
      "ci": 401,
      "po": 402,
      "going": 403,
      "enjoy": 404,
      "happy": 405,
      "use": 406,
      "Tell": 407,
      "yeah": 408,
      "kids": 409,
      "ue": 410,
      "sch": 411,
      "ep": 412,
      "our": 413,
      "school": 414,
      "been": 415,
      "watch": 416,
      "home": 417,
      "tr": 418,
      "red": 419,
      "irl": 420,
      "ting": 421,
      "lf": 422,
      "ies": 423,
      "girl": 424,
      "ven": 425,
      "were": 426,
      "It": 427,
      "che": 428,
      "friends": 429,
      "care": 430,
      "pr": 431,
      "back": 432,
      "job": 433,
      "him": 434,
      "every": 435,
      "ud": 436,
      "kind": 437,
      "old": 438,
      "lol": 439,
      "food": 440,
      "tra": 441,
      "each": 442,
      "har": 443,
      "bet": 444,
      "right": 445,
      "ok": 446,
      "ie": 447,
      "this": 448,
      "ball": 449,
      "other": 450,
      "der": 451,
      "gu": 452,
      "ma": 453,
      "ss": 454,
      "also": 455,
      "take": 456,
      "wn": 457,
      "saw": 458,
      "self": 459,
      "never": 460,
      "wow": 461,
      "fam": 462,
      "ways": 463,
      "think": 464,
      "year": 465,
      "ome": 466,
      "uck": 467,
      "here": 468,
      "fo": 469,
      "pret": 470,
      "say": 471,
      "la": 472,
      "friend": 473,
      "ried": 474,
      "man": 475,
      "te": 476,
      "col": 477,
      "always": 478,
      "need": 479,
      ".\"": 480,
      "ree": 481,
      "ful": 482,
      "thank": 483,
      "look": 484,
      "their": 485,
      "mar": 486,
      "though": 487,
      "by": 488,
      "should": 489,
      "sor": 490,
      "inter": 491,
      "end": 492,
      "night": 493,
      "ive": 494,
      "ous": 495,
      "who": 496,
      "cook": 497,
      "pet": 498,
      "tw": 499,
      "may": 500,
      "wanted": 501,
      "con": 502,
      "list": 503,
      "One": 504,
      "ug": 505,
      "Tim": 506,
      "sorry": 507,
      "book": 508,
      "pretty": 509,
      "nt": 510,
      "family": 511,
      "bro": 512,
      "only": 513,
      "cit": 514,
      "side": 515,
      "!\"": 516,
      "then": 517,
      "most": 518,
      "sure": 519,
      "On": 520,
      "peo": 521,
      "ning": 522,
      "went": 523,
      "na": 524,
      "esome": 525,
      "dogs": 526,
      "par": 527,
      "awesome": 528,
      "listen": 529,
      "long": 530,
      "people": 531,
      "run": 532,
      "ace": 533,
      "af": 534,
      "qu": 535,
      "Once": 536,
      "cl": 537,
      "come": 538,
      "things": 539,
      "game": 540,
      "act": 541,
      "boy": 542,
      "cause": 543,
      "vel": 544,
      "hob": 545,
      "pi": 546,
      "does": 547,
      "coll": 548,
      "start": 549,
      "sing": 550,
      "wal": 551,
      "ick": 552,
      "pro": 553,
      "around": 554,
      "band": 555,
      "off": 556,
      "ade": 557,
      "best": 558,
      "teach": 559,
      "anim": 560,
      "feel": 561,
      "als": 562,
      "times": 563,
      "ild": 564,
      "maybe": 565,
      "colle": 566,
      "Tom": 567,
      "bea": 568,
      "because": 569,
      "something": 570,
      "Ben": 571,
      "ran": 572,
      "ta": 573,
      "even": 574,
      "color": 575,
      "put": 576,
      "dad": 577,
      "upon": 578,
      "hed": 579,
      "hey": 580,
      "playing": 581,
      "ny": 582,
      "clo": 583,
      "into": 584,
      "fin": 585,
      "ation": 586,
      "ever": 587,
      "hope": 588,
      "show": 589,
      "dri": 590,
      "sho": 591,
      "why": 592,
      "bus": 593,
      "ile": 594,
      "living": 595,
      "ang": 596,
      "per": 597,
      "fer": 598,
      "haha": 599,
      "named": 600,
      "many": 601,
      "bu": 602,
      "mov": 603,
      "two": 604,
      "ually": 605,
      "hard": 606,
      "br": 607,
      "coun": 608,
      "wee": 609,
      "own": 610,
      "nts": 611,
      "travel": 612,
      "over": 613,
      "pare": 614,
      "fore": 615,
      "wish": 616,
      "lear": 617,
      "zz": 618,
      "tal": 619,
      "But": 620,
      "cre": 621,
      "di": 622,
      "away": 623,
      "still": 624,
      "life": 625,
      "sad": 626,
      "tell": 627,
      "ble": 628,
      "ouse": 629,
      "arm": 630,
      "being": 631,
      "ance": 632,
      "fish": 633,
      "wr": 634,
      "bir": 635,
      "bies": 636,
      "bad": 637,
      "stud": 638,
      "interest": 639,
      "wa": 640,
      "keep": 641,
      "find": 642,
      "ought": 643,
      "gl": 644,
      "hobbies": 645,
      "hear": 646,
      "?\"": 647,
      "ken": 648,
      "hair": 649,
      "loved": 650,
      "gether": 651,
      "made": 652,
      "animals": 653,
      "child": 654,
      "ren": 655,
      "smil": 656,
      "mine": 657,
      "ct": 658,
      "has": 659,
      "years": 660,
      "better": 661,
      "sk": 662,
      "pets": 663,
      "ig": 664,
      "cer": 665,
      "pen": 666,
      "ise": 667,
      "after": 668,
      "parents": 669,
      "dr": 670,
      "together": 671,
      "ia": 672,
      "started": 673,
      "lt": 674,
      "college": 675,
      "part": 676,
      "ment": 677,
      "park": 678,
      "down": 679,
      "You": 680,
      "toy": 681,
      "working": 682,
      "anything": 683,
      "excit": 684,
      "sometimes": 685,
      "able": 686,
      "ooked": 687,
      "Timmy": 688,
      "came": 689,
      "okay": 690,
      "interesting": 691,
      "tion": 692,
      "house": 693,
      "stay": 694,
      "ull": 695,
      "mor": 696,
      "must": 697,
      "used": 698,
      "felt": 699,
      "An": 700,
      "asked": 701,
      "smiled": 702,
      "looked": 703,
      "again": 704,
      "oney": 705,
      "ten": 706,
      "Mom": 707,
      "ft": 708,
      "learn": 709,
      "ga": 710,
      "rea": 711,
      "ama": 712,
      "row": 713,
      "tor": 714,
      "won": 715,
      "spe": 716,
      "ber": 717,
      "watching": 718,
      "says": 719,
      "ase": 720,
      "cats": 721,
      "ans": 722,
      "hat": 723,
      "low": 724,
      "vo": 725,
      "ph": 726,
      "bab": 727,
      "age": 728,
      "dy": 729,
      "les": 730,
      "thanks": 731,
      "high": 732,
      "gan": 733,
      "dre": 734,
      "sur": 735,
      "dec": 736,
      "su": 737,
      "sha": 738,
      "ince": 739,
      "games": 740,
      "reading": 741,
      "married": 742,
      "ps": 743,
      "while": 744,
      "under": 745,
      "tho": 746,
      "dra": 747,
      "pain": 748,
      "tball": 749,
      "pers": 750,
      "pic": 751,
      "cial": 752,
      "stand": 753,
      "drive": 754,
      "outside": 755,
      "ner": 756,
      "oom": 757,
      "mon": 758,
      "money": 759,
      "oud": 760,
      "brother": 761,
      "blue": 762,
      "pizz": 763,
      "getting": 764,
      "ings": 765,
      "books": 766,
      "ian": 767,
      "bit": 768,
      "rock": 769,
      "da": 770,
      "sun": 771,
      "pizza": 772,
      "class": 773,
      "heard": 774,
      "pped": 775,
      ",\"": 776,
      "cle": 777,
      "vis": 778,
      "found": 779,
      "pa": 780,
      "movies": 781,
      "move": 782,
      "scare": 783,
      "ff": 784,
      "ger": 785,
      "vid": 786,
      "since": 787,
      "orts": 788,
      "thought": 789,
      "wait": 790,
      "yourself": 791,
      "myself": 792,
      "str": 793,
      "let": 794,
      "person": 795,
      "before": 796,
      "bor": 797,
      "don": 798,
      "si": 799,
      "call": 800,
      "mer": 801,
      "ught": 802,
      "sup": 803,
      "gard": 804,
      "beaut": 805,
      "swi": 806,
      "bird": 807,
      "fi": 808,
      "country": 809,
      "garden": 810,
      "hor": 811,
      "soon": 812,
      "walk": 813,
      "children": 814,
      "room": 815,
      "ture": 816,
      "cho": 817,
      "full": 818,
      "sports": 819,
      "hate": 820,
      "actually": 821,
      "cy": 822,
      "cannot": 823,
      "small": 824,
      "ich": 825,
      "fast": 826,
      "swim": 827,
      "hus": 828,
      "hand": 829,
      "fl": 830,
      "else": 831,
      "excited": 832,
      "bed": 833,
      "tonight": 834,
      "dif": 835,
      "liked": 836,
      "both": 837,
      "those": 838,
      "guess": 839,
      "busy": 840,
      "pt": 841,
      "looking": 842,
      "foo": 843,
      "lots": 844,
      "ons": 845,
      "trying": 846,
      "plan": 847,
      "scared": 848,
      "wonder": 849,
      "took": 850,
      "give": 851,
      "ara": 852,
      "place": 853,
      "water": 854,
      "whats": 855,
      "ished": 856,
      "makes": 857,
      "beautif": 858,
      "beautiful": 859,
      "app": 860,
      "husband": 861,
      "ready": 862,
      "fir": 863,
      "study": 864,
      "swe": 865,
      "ser": 866,
      "farm": 867,
      "tur": 868,
      "amaz": 869,
      "beach": 870,
      "cake": 871,
      "done": 872,
      "hug": 873,
      "mostly": 874,
      "weeken": 875,
      "dis": 876,
      "ute": 877,
      "same": 878,
      "sist": 879,
      "ary": 880,
      "fine": 881,
      "youn": 882,
      "decid": 883,
      "lie": 884,
      "port": 885,
      "store": 886,
      "tried": 887,
      "ba": 888,
      "gree": 889,
      "decided": 890,
      "tired": 891,
      "wife": 892,
      "free": 893,
      "grand": 894,
      "gy": 895,
      "door": 896,
      "cra": 897,
      "spend": 898,
      "nex": 899,
      "rest": 900,
      "cur": 901,
      "Sam": 902,
      "pass": 903,
      "uff": 904,
      "world": 905,
      "eating": 906,
      "special": 907,
      "iss": 908,
      "next": 909,
      "visit": 910,
      "alth": 911,
      "meat": 912,
      "bar": 913,
      "udd": 914,
      "ap": 915,
      "hun": 916,
      "sound": 917,
      "morning": 918,
      "mother": 919,
      "truck": 920,
      "meet": 921,
      "leep": 922,
      "city": 923,
      "teacher": 924,
      "cially": 925,
      "understand": 926,
      "played": 927,
      "cars": 928,
      "brea": 929,
      "true": 930,
      "cr": 931,
      "days": 932,
      "open": 933,
      "first": 934,
      "three": 935,
      "drink": 936,
      "tv": 937,
      "luck": 938,
      "hur": 939,
      "head": 940,
      "differ": 941,
      "draw": 942,
      "ax": 943,
      "tre": 944,
      "health": 945,
      "pecially": 946,
      "especially": 947,
      "We": 948,
      "might": 949,
      "sweet": 950,
      "zy": 951,
      "pping": 952,
      "ste": 953,
      "Sara": 954,
      "video": 955,
      "Anna": 956,
      "ity": 957,
      "less": 958,
      "near": 959,
      "football": 960,
      "hot": 961,
      "green": 962,
      "toys": 963,
      "ub": 964,
      "last": 965,
      "dance": 966,
      "prefer": 967,
      "happen": 968,
      "knew": 969,
      "funny": 970,
      "having": 971,
      "lax": 972,
      "tall": 973,
      "gg": 974,
      "relax": 975,
      "Max": 976,
      "ted": 977,
      "mommy": 978,
      "mean": 979,
      "different": 980,
      "fly": 981,
      "ump": 982,
      "cooking": 983,
      "lea": 984,
      "few": 985,
      "flow": 986,
      "fan": 987,
      "pot": 988,
      "sleep": 989,
      "ear": 990,
      "key": 991,
      "ank": 992,
      "didn": 993,
      "pur": 994,
      "ms": 995,
      "amazing": 996,
      "tree": 997,
      "ated": 998,
      "eak": 999,
      "box": 1000,
      "making": 1001,
      "med": 1002,
      "din": 1003,
      "ese": 1004,
      "ical": 1005,
      "listening": 1006,
      "rain": 1007,
      "young": 1008,
      "tri": 1009,
      "ence": 1010,
      "ket": 1011,
      "real": 1012,
      "bas": 1013,
      "So": 1014,
      "probab": 1015,
      "probably": 1016,
      "told": 1017,
      "des": 1018,
      "stre": 1019,
      "late": 1020,
      "thr": 1021,
      "which": 1022,
      "once": 1023,
      "ched": 1024,
      "dan": 1025,
      "hu": 1026,
      "cold": 1027,
      "learned": 1028,
      "wear": 1029,
      "ged": 1030,
      "everything": 1031,
      "movie": 1032,
      "rom": 1033,
      "close": 1034,
      "week": 1035,
      "yet": 1036,
      "inking": 1037,
      "cal": 1038,
      "buy": 1039,
      "ange": 1040,
      "far": 1041,
      "iness": 1042,
      "ago": 1043,
      "til": 1044,
      "turn": 1045,
      "je": 1046,
      "idea": 1047,
      "taking": 1048,
      "shop": 1049,
      "ming": 1050,
      "ses": 1051,
      "seen": 1052,
      "stuff": 1053,
      "ride": 1054,
      "black": 1055,
      "talk": 1056,
      "break": 1057,
      "min": 1058,
      "vegan": 1059,
      "running": 1060,
      "land": 1061,
      "gave": 1062,
      "clean": 1063,
      "enough": 1064,
      "plo": 1065,
      "finished": 1066,
      "write": 1067,
      "son": 1068,
      "line": 1069,
      "fee": 1070,
      "cof": 1071,
      "cor": 1072,
      "lun": 1073,
      "coffee": 1074,
      "ater": 1075,
      "proud": 1076,
      "ask": 1077,
      "until": 1078,
      "lieve": 1079,
      "ummer": 1080,
      "walking": 1081,
      "ob": 1082,
      "cli": 1083,
      "When": 1084,
      "ones": 1085,
      "inside": 1086,
      "dream": 1087,
      "shi": 1088,
      "ins": 1089,
      "bur": 1090,
      "udden": 1091,
      "chic": 1092,
      "bear": 1093,
      "Her": 1094,
      "wonderful": 1095,
      "nothing": 1096,
      "grow": 1097,
      "yo": 1098,
      "rent": 1099,
      "sal": 1100,
      "grad": 1101,
      "miss": 1102,
      "uddenly": 1103,
      "mind": 1104,
      "weekend": 1105,
      "glad": 1106,
      "hang": 1107,
      "ctor": 1108,
      "super": 1109,
      "business": 1110,
      "io": 1111,
      "deli": 1112,
      "alone": 1113,
      "usually": 1114,
      "mat": 1115,
      "sw": 1116,
      "cream": 1117,
      "tain": 1118,
      "import": 1119,
      "ries": 1120,
      "sn": 1121,
      "ither": 1122,
      "Every": 1123,
      "fall": 1124,
      "ves": 1125,
      "often": 1126,
      "lls": 1127,
      "ican": 1128,
      "veget": 1129,
      "mber": 1130,
      "set": 1131,
      "healthy": 1132,
      "lived": 1133,
      "Jack": 1134,
      "nur": 1135,
      "important": 1136,
      "ah": 1137,
      "wea": 1138,
      "ious": 1139,
      "sky": 1140,
      "studying": 1141,
      "chat": 1142,
      "shopping": 1143,
      "comput": 1144,
      "ze": 1145,
      "writ": 1146,
      "cu": 1147,
      "sister": 1148,
      "mm": 1149,
      "eas": 1150,
      "sit": 1151,
      "daught": 1152,
      "comp": 1153,
      "ali": 1154,
      "safe": 1155,
      "star": 1156,
      "ating": 1157,
      "ign": 1158,
      "win": 1159,
      "ature": 1160,
      "everyone": 1161,
      "current": 1162,
      "ton": 1163,
      "mil": 1164,
      "cent": 1165,
      "pay": 1166,
      "picture": 1167,
      "paint": 1168,
      "eyes": 1169,
      "Mia": 1170,
      "ved": 1171,
      "couldn": 1172,
      "law": 1173,
      "itar": 1174,
      "believe": 1175,
      "bike": 1176,
      "ster": 1177,
      "feeling": 1178,
      "guitar": 1179,
      "yum": 1180,
      "tu": 1181,
      "fishing": 1182,
      "sell": 1183,
      "ics": 1184,
      "fully": 1185,
      "called": 1186,
      "hour": 1187,
      "pick": 1188,
      "gen": 1189,
      "Let": 1190,
      "summer": 1191,
      "share": 1192,
      "erg": 1193,
      "cou": 1194,
      "ugh": 1195,
      "gra": 1196,
      "someone": 1197,
      "guy": 1198,
      "cour": 1199,
      "ised": 1200,
      "crazy": 1201,
      "evening": 1202,
      "another": 1203,
      "llow": 1204,
      "Then": 1205,
      "dinner": 1206,
      "cute": 1207,
      "hugged": 1208,
      "ats": 1209,
      "careful": 1210,
      "Suddenly": 1211,
      "iny": 1212,
      "hobby": 1213,
      "left": 1214,
      "purple": 1215,
      "through": 1216,
      "mi": 1217,
      "defin": 1218,
      "From": 1219,
      "dd": 1220,
      "ping": 1221,
      "hiking": 1222,
      "coming": 1223,
      "ark": 1224,
      "song": 1225,
      "single": 1226,
      "press": 1227,
      "dress": 1228,
      "arian": 1229,
      "member": 1230,
      "aces": 1231,
      "helps": 1232,
      "cali": 1233,
      "mag": 1234,
      "rel": 1235,
      "sibl": 1236,
      "scar": 1237,
      "cant": 1238,
      "erc": 1239,
      "bra": 1240,
      "currently": 1241,
      "light": 1242,
      "doctor": 1243,
      "month": 1244,
      "His": 1245,
      "em": 1246,
      "itely": 1247,
      "gro": 1248,
      "animal": 1249,
      "And": 1250,
      "cheese": 1251,
      "either": 1252,
      "definitely": 1253,
      "lad": 1254,
      "weather": 1255,
      "sou": 1256,
      "pink": 1257,
      "That": 1258,
      "ado": 1259,
      "agree": 1260,
      "train": 1261,
      "chocol": 1262,
      "prof": 1263,
      "alot": 1264,
      "10": 1265,
      "father": 1266,
      "hurt": 1267,
      "fort": 1268,
      "loves": 1269,
      "siblings": 1270,
      "chocolate": 1271,
      "aur": 1272,
      "hes": 1273,
      "met": 1274,
      "att": 1275,
      "face": 1276,
      "aurant": 1277,
      "restaurant": 1278,
      "lost": 1279,
      "danc": 1280,
      "ession": 1281,
      "jump": 1282,
      "ason": 1283,
      "cont": 1284,
      "team": 1285,
      "talking": 1286,
      "baby": 1287,
      "yell": 1288,
      "type": 1289,
      "sli": 1290,
      "moved": 1291,
      "cam": 1292,
      "company": 1293,
      "loud": 1294,
      "yours": 1295,
      "pes": 1296,
      "bow": 1297,
      "ird": 1298,
      "clim": 1299,
      "adven": 1300,
      "top": 1301,
      "kin": 1302,
      "remember": 1303,
      "spo": 1304,
      "bake": 1305,
      "build": 1306,
      "men": 1307,
      "baske": 1308,
      "anymore": 1309,
      "thinking": 1310,
      "os": 1311,
      "party": 1312,
      "tast": 1313,
      "thes": 1314,
      "ped": 1315,
      "online": 1316,
      "follow": 1317,
      "basketball": 1318,
      "hike": 1319,
      "soc": 1320,
      "swimming": 1321,
      "rid": 1322,
      "works": 1323,
      "dro": 1324,
      "brown": 1325,
      "exerc": 1326,
      "pract": 1327,
      "base": 1328,
      "brothers": 1329,
      "quite": 1330,
      "gon": 1331,
      "air": 1332,
      "fle": 1333,
      "cand": 1334,
      "illy": 1335,
      "course": 1336,
      "soccer": 1337,
      "exciting": 1338,
      "phone": 1339,
      "sci": 1340,
      "relaxing": 1341,
      "pop": 1342,
      "past": 1343,
      "hon": 1344,
      "student": 1345,
      "winter": 1346,
      "ital": 1347,
      "Yes": 1348,
      "war": 1349,
      "clothes": 1350,
      "yoga": 1351,
      "char": 1352,
      "worked": 1353,
      "ork": 1354,
      "ground": 1355,
      "pho": 1356,
      "What": 1357,
      "almost": 1358,
      "lake": 1359,
      "flowers": 1360,
      "cas": 1361,
      "imag": 1362,
      "surpr": 1363,
      "allerg": 1364,
      "fre": 1365,
      "surf": 1366,
      "ane": 1367,
      "blo": 1368,
      "zed": 1369,
      "stick": 1370,
      "ction": 1371,
      "gradu": 1372,
      "thanked": 1373,
      "laug": 1374,
      "laughed": 1375,
      "boat": 1376,
      "Mommy": 1377,
      "pie": 1378,
      "angry": 1379,
      "passion": 1380,
      "least": 1381,
      "fect": 1382,
      "fas": 1383,
      "boring": 1384,
      "recent": 1385,
      "nor": 1386,
      "laugh": 1387,
      "res": 1388,
      "concer": 1389,
      "ucks": 1390,
      "local": 1391,
      "du": 1392,
      "warm": 1393,
      "chicken": 1394,
      "catch": 1395,
      "older": 1396,
      "boys": 1397,
      "computer": 1398,
      "ond": 1399,
      "profession": 1400,
      "lit": 1401,
      "vy": 1402,
      "mas": 1403,
      "scary": 1404,
      "lly": 1405,
      "fic": 1406,
      "doors": 1407,
      "qui": 1408,
      "mex": 1409,
      "Can": 1410,
      "led": 1411,
      "speak": 1412,
      "shows": 1413,
      "ations": 1414,
      "explo": 1415,
      "daughter": 1416,
      "net": 1417,
      "ida": 1418,
      "artist": 1419,
      "rible": 1420,
      "such": 1421,
      "ww": 1422,
      "wrong": 1423,
      "flor": 1424,
      "itting": 1425,
      "lan": 1426,
      "town": 1427,
      "ward": 1428,
      "nurse": 1429,
      "spare": 1430,
      "lar": 1431,
      "cious": 1432,
      "likes": 1433,
      "stop": 1434,
      "cry": 1435,
      "stru": 1436,
      "exercise": 1437,
      "fix": 1438,
      "driving": 1439,
      "lucky": 1440,
      "photo": 1441,
      "gets": 1442,
      "wo": 1443,
      "rap": 1444,
      "cha": 1445,
      "itali": 1446,
      "00": 1447,
      "vers": 1448,
      "please": 1449,
      "engl": 1450,
      "snow": 1451,
      "writing": 1452,
      "weird": 1453,
      "york": 1454,
      "ling": 1455,
      "adventure": 1456,
      "fter": 1457,
      "pian": 1458,
      "rather": 1459,
      "wel": 1460,
      "italian": 1461,
      "florida": 1462,
      "office": 1463,
      "hours": 1464,
      "cess": 1465,
      "brave": 1466,
      "walked": 1467,
      "fight": 1468,
      "sme": 1469,
      "quick": 1470,
      "strong": 1471,
      "kept": 1472,
      "fren": 1473,
      "cut": 1474,
      "ween": 1475,
      "ash": 1476,
      "asking": 1477,
      "smile": 1478,
      "happened": 1479,
      "board": 1480,
      "recently": 1481,
      "fair": 1482,
      "leave": 1483,
      "horses": 1484,
      "Th": 1485,
      "ford": 1486,
      "wood": 1487,
      "ucy": 1488,
      "baseball": 1489,
      "No": 1490,
      "ness": 1491,
      "Joh": 1492,
      "lady": 1493,
      "volun": 1494,
      "gym": 1495,
      "John": 1496,
      "ship": 1497,
      "watched": 1498,
      "bring": 1499,
      "proble": 1500,
      "dancing": 1501,
      "volunte": 1502,
      "tory": 1503,
      "flo": 1504,
      "que": 1505,
      "perfect": 1506,
      "iced": 1507,
      "Thank": 1508,
      "french": 1509,
      "delicious": 1510,
      "four": 1511,
      "count": 1512,
      "yellow": 1513,
      "smart": 1514,
      "ents": 1515,
      "int": 1516,
      "opened": 1517,
      "voice": 1518,
      "nia": 1519,
      "hands": 1520,
      "oman": 1521,
      "huge": 1522,
      "As": 1523,
      "califor": 1524,
      "ney": 1525,
      "volunteer": 1526,
      "langu": 1527,
      "bun": 1528,
      "whe": 1529,
      "acti": 1530,
      "woman": 1531,
      "bye": 1532,
      "noise": 1533,
      "degree": 1534,
      "pat": 1535,
      "california": 1536,
      "flew": 1537,
      "cus": 1538,
      "phy": 1539,
      "gi": 1540,
      "ding": 1541,
      "fit": 1542,
      "stead": 1543,
      "ath": 1544,
      "amer": 1545,
      "After": 1546,
      "ja": 1547,
      "ele": 1548,
      "sc": 1549,
      "explore": 1550,
      "uring": 1551,
      "state": 1552,
      "uni": 1553,
      "gone": 1554,
      "ield": 1555,
      "stress": 1556,
      "piano": 1557,
      "ya": 1558,
      "kit": 1559,
      "ountain": 1560,
      "cro": 1561,
      "ult": 1562,
      "yummy": 1563,
      "along": 1564,
      "sick": 1565,
      "Lucy": 1566,
      "outdoors": 1567,
      "ages": 1568,
      "tea": 1569,
      "roll": 1570,
      "lin": 1571,
      "stran": 1572,
      "ident": 1573,
      "pictures": 1574,
      "ables": 1575,
      "igh": 1576,
      "cks": 1577,
      "ces": 1578,
      "Dad": 1579,
      "kinds": 1580,
      "py": 1581,
      "forest": 1582,
      "fli": 1583,
      "grab": 1584,
      "fru": 1585,
      "picked": 1586,
      "became": 1587,
      "fire": 1588,
      "tex": 1589,
      "hung": 1590,
      "tac": 1591,
      "add": 1592,
      "plant": 1593,
      "stopped": 1594,
      "sol": 1595,
      "field": 1596,
      "van": 1597,
      "shiny": 1598,
      "easy": 1599,
      "worry": 1600,
      "ums": 1601,
      "girlfriend": 1602,
      "ica": 1603,
      "canad": 1604,
      "sand": 1605,
      "ring": 1606,
      "ters": 1607,
      "tou": 1608,
      "diet": 1609,
      "pup": 1610,
      "birth": 1611,
      "weekends": 1612,
      "main": 1613,
      "ular": 1614,
      "nature": 1615,
      "libr": 1616,
      "egg": 1617,
      "singing": 1618,
      "painting": 1619,
      "body": 1620,
      "retired": 1621,
      "anyone": 1622,
      "bought": 1623,
      "butter": 1624,
      "nope": 1625,
      "vor": 1626,
      "cookies": 1627,
      "instead": 1628,
      "climb": 1629,
      "steak": 1630,
      "enjoying": 1631,
      "boyfriend": 1632,
      "girls": 1633,
      "looks": 1634,
      "imagine": 1635,
      "ced": 1636,
      "takes": 1637,
      "novel": 1638,
      "born": 1639,
      "candy": 1640,
      "mountain": 1641,
      "ition": 1642,
      "ski": 1643,
      "colors": 1644,
      "ker": 1645,
      "traveling": 1646,
      "become": 1647,
      "wer": 1648,
      "cup": 1649,
      "mid": 1650,
      "places": 1651,
      "sea": 1652,
      "helped": 1653,
      "jap": 1654,
      "jor": 1655,
      "rep": 1656,
      "au": 1657,
      "plans": 1658,
      "shoes": 1659,
      "eng": 1660,
      "japan": 1661,
      "bright": 1662,
      "english": 1663,
      "tenn": 1664,
      "sat": 1665,
      "doll": 1666,
      "morrow": 1667,
      "chr": 1668,
      "club": 1669,
      "unk": 1670,
      "cons": 1671,
      "horse": 1672,
      "moment": 1673,
      "grade": 1674,
      "during": 1675,
      "ju": 1676,
      "ative": 1677,
      "instru": 1678,
      "ach": 1679,
      "fell": 1680,
      "arch": 1681,
      "chen": 1682,
      "tomorrow": 1683,
      "wind": 1684,
      "kitchen": 1685,
      "oce": 1686,
      "Bob": 1687,
      "ckey": 1688,
      "lovely": 1689,
      "flower": 1690,
      "turned": 1691,
      "hum": 1692,
      "nodd": 1693,
      "prom": 1694,
      "hows": 1695,
      "major": 1696,
      "hold": 1697,
      "hosp": 1698,
      "pu": 1699,
      "sen": 1700,
      "nodded": 1701,
      "pper": 1702,
      "sitting": 1703,
      "cong": 1704,
      "jobs": 1705,
      "vet": 1706,
      "grew": 1707,
      "early": 1708,
      "hockey": 1709,
      "dark": 1710,
      "fant": 1711,
      "mess": 1712,
      "wed": 1713,
      "secre": 1714,
      "orange": 1715,
      "reci": 1716,
      "five": 1717,
      "congr": 1718,
      "these": 1719,
      "collect": 1720,
      "hungry": 1721,
      "sisters": 1722,
      "keeps": 1723,
      "tough": 1724,
      "later": 1725,
      "feet": 1726,
      "dang": 1727,
      "jazz": 1728,
      "ws": 1729,
      "names": 1730,
      "bs": 1731,
      "icy": 1732,
      "ocean": 1733,
      "€™": 1734,
      "tat": 1735,
      "vac": 1736,
      "grass": 1737,
      "hit": 1738,
      "alright": 1739,
      "wants": 1740,
      "lic": 1741,
      "season": 1742,
      "impress": 1743,
      "join": 1744,
      "hanging": 1745,
      "cakes": 1746,
      "ier": 1747,
      "hospital": 1748,
      "ston": 1749,
      "gs": 1750,
      "beer": 1751,
      "sy": 1752,
      "race": 1753,
      "quickly": 1754,
      "sive": 1755,
      "chan": 1756,
      "deal": 1757,
      "kes": 1758,
      "trees": 1759,
      "broke": 1760,
      "Do": 1761,
      "exce": 1762,
      "teaching": 1763,
      "lied": 1764,
      "apart": 1765,
      "bal": 1766,
      "taught": 1767,
      "metal": 1768,
      "Spot": 1769,
      "road": 1770,
      "practice": 1771,
      "check": 1772,
      "mic": 1773,
      "soft": 1774,
      "christ": 1775,
      "problem": 1776,
      "canada": 1777,
      "neat": 1778,
      "riding": 1779,
      "birds": 1780,
      "noticed": 1781,
      "ila": 1782,
      "trip": 1783,
      "male": 1784,
      "neigh": 1785,
      "god": 1786,
      "expl": 1787,
      "paper": 1788,
      "rab": 1789,
      "ush": 1790,
      "tube": 1791,
      "vegetarian": 1792,
      "allergic": 1793,
      "tire": 1794,
      "seems": 1795,
      "pool": 1796,
      "fro": 1797,
      "chur": 1798,
      "white": 1799,
      "smell": 1800,
      "change": 1801,
      "secret": 1802,
      "slow": 1803,
      "muse": 1804,
      "gle": 1805,
      "unate": 1806,
      "tech": 1807,
      "showed": 1808,
      "Sue": 1809,
      "without": 1810,
      "sus": 1811,
      "someday": 1812,
      "shout": 1813,
      "pull": 1814,
      "fil": 1815,
      "fortunate": 1816,
      "ates": 1817,
      "Jo": 1818,
      "heart": 1819,
      "baking": 1820,
      "lunch": 1821,
      "rill": 1822,
      "social": 1823,
      "finish": 1824,
      "walks": 1825,
      "helping": 1826,
      "mc": 1827,
      "slide": 1828,
      "squ": 1829,
      "20": 1830,
      "asure": 1831,
      "classes": 1832,
      "Look": 1833,
      "rious": 1834,
      "May": 1835,
      "ks": 1836,
      "seem": 1837,
      "cheer": 1838,
      "tail": 1839,
      "ider": 1840,
      "others": 1841,
      "tennis": 1842,
      "career": 1843,
      "illed": 1844,
      "chatting": 1845,
      "ni": 1846,
      "learning": 1847,
      "stories": 1848,
      "church": 1849,
      "pretend": 1850,
      "closer": 1851,
      "weight": 1852,
      "shel": 1853,
      "terrible": 1854,
      "lives": 1855,
      "ples": 1856,
      "fur": 1857,
      "fresh": 1858,
      "died": 1859,
      "gotta": 1860,
      "mp": 1861,
      "sub": 1862,
      "acc": 1863,
      "whole": 1864,
      "tattoo": 1865,
      "foods": 1866,
      "hopefully": 1867,
      "cover": 1868,
      "honest": 1869,
      "ches": 1870,
      "logy": 1871,
      "goodbye": 1872,
      "apple": 1873,
      "photogra": 1874,
      "pow": 1875,
      "yard": 1876,
      "raid": 1877,
      "erous": 1878,
      "grocer": 1879,
      "This": 1880,
      "quiet": 1881,
      "months": 1882,
      "gas": 1883,
      "ru": 1884,
      "pri": 1885,
      "comm": 1886,
      "sty": 1887,
      "itten": 1888,
      "curious": 1889,
      "noon": 1890,
      "glass": 1891,
      "yed": 1892,
      "vegg": 1893,
      "hind": 1894,
      "Maybe": 1895,
      "afraid": 1896,
      "neighbor": 1897,
      "famous": 1898,
      "reali": 1899,
      "replied": 1900,
      "expen": 1901,
      "street": 1902,
      "bot": 1903,
      "sucks": 1904,
      "ments": 1905,
      "lets": 1906,
      "rad": 1907,
      "compet": 1908,
      "rabbit": 1909,
      "bug": 1910,
      "mum": 1911,
      "waiting": 1912,
      "sim": 1913,
      "stra": 1914,
      "hy": 1915,
      "science": 1916,
      "birthday": 1917,
      "texas": 1918,
      "already": 1919,
      "shar": 1920,
      "chi": 1921,
      "vegetables": 1922,
      "wall": 1923,
      "greed": 1924,
      "vice": 1925,
      "goes": 1926,
      "magic": 1927,
      "Lila": 1928,
      "sport": 1929,
      "beat": 1930,
      "del": 1931,
      "solute": 1932,
      "absolute": 1933,
      "everyday": 1934,
      "tot": 1935,
      "bes": 1936,
      "snake": 1937,
      "rot": 1938,
      "ari": 1939,
      "afternoon": 1940,
      "passed": 1941,
      "oes": 1942,
      "gers": 1943,
      "ils": 1944,
      "expensive": 1945,
      "strange": 1946,
      "smo": 1947,
      "fruit": 1948,
      "Sarah": 1949,
      "totally": 1950,
      "ached": 1951,
      "design": 1952,
      "cket": 1953,
      "hunting": 1954,
      "needed": 1955,
      "vacation": 1956,
      "ically": 1957,
      "sees": 1958,
      "six": 1959,
      "everywhere": 1960,
      "bre": 1961,
      "Jane": 1962,
      "ror": 1963,
      "drawing": 1964,
      "puppy": 1965,
      "hmm": 1966,
      "huh": 1967,
      "gram": 1968,
      "iron": 1969,
      "dead": 1970,
      "math": 1971,
      "wild": 1972,
      "youtube": 1973,
      "lone": 1974,
      "accident": 1975,
      "vio": 1976,
      "floor": 1977,
      "mexican": 1978,
      "sug": 1979,
      "eggs": 1980,
      "touch": 1981,
      "zoo": 1982,
      "behind": 1983,
      "ham": 1984,
      "tle": 1985,
      "ars": 1986,
      "dle": 1987,
      "extra": 1988,
      "organ": 1989,
      "kay": 1990,
      "step": 1991,
      "save": 1992,
      "jumped": 1993,
      "finally": 1994,
      "dir": 1995,
      "table": 1996,
      "ible": 1997,
      "boo": 1998,
      "form": 1999,
      "twins": 2000,
      "bunny": 2001,
      "trou": 2002,
      "relation": 2003,
      "player": 2004,
      "unfortunate": 2005,
      "wards": 2006,
      "enjoyed": 2007,
      "fig": 2008,
      "sed": 2009,
      "ani": 2010,
      "apartment": 2011,
      "grabbed": 2012,
      "Joe": 2013,
      "pond": 2014,
      "hoping": 2015,
      "cond": 2016,
      "fat": 2017,
      "inally": 2018,
      "spot": 2019,
      "comes": 2020,
      "grandma": 2021,
      "cked": 2022,
      "ides": 2023,
      "bee": 2024,
      "absolutely": 2025,
      "In": 2026,
      "Don": 2027,
      "army": 2028,
      "agreed": 2029,
      "grocery": 2030,
      "isy": 2031,
      "drinking": 2032,
      "fac": 2033,
      "rich": 2034,
      "Everyone": 2035,
      "foot": 2036,
      "lately": 2037,
      "realized": 2038,
      "oc": 2039,
      "chicago": 2040,
      "dist": 2041,
      "friendly": 2042,
      "chair": 2043,
      "dow": 2044,
      "tacos": 2045,
      "sometime": 2046,
      "bag": 2047,
      "ator": 2048,
      "vi": 2049,
      "ety": 2050,
      "area": 2051,
      "graduated": 2052,
      "prin": 2053,
      "sushi": 2054,
      "pasta": 2055,
      "lawy": 2056,
      "yep": 2057,
      "nic": 2058,
      "peace": 2059,
      "broken": 2060,
      "lonely": 2061,
      "lice": 2062,
      "donal": 2063,
      "ject": 2064,
      "hea": 2065,
      "mad": 2066,
      "rope": 2067,
      "welcome": 2068,
      "pair": 2069,
      "ties": 2070,
      "pit": 2071,
      "ual": 2072,
      "nah": 2073,
      "ress": 2074,
      "rac": 2075,
      "cast": 2076,
      "estion": 2077,
      "bac": 2078,
      "power": 2079,
      "ross": 2080,
      "exact": 2081,
      "sign": 2082,
      "languages": 2083,
      "mainly": 2084,
      "concerts": 2085,
      "engine": 2086,
      "mix": 2087,
      "reached": 2088,
      "novels": 2089,
      "deep": 2090,
      "guys": 2091,
      "dea": 2092,
      "kinda": 2093,
      "stuck": 2094,
      "silly": 2095,
      "bob": 2096,
      "large": 2097,
      "program": 2098,
      "diffic": 2099,
      "cla": 2100,
      "gent": 2101,
      "search": 2102,
      "aches": 2103,
      "wing": 2104,
      "impressive": 2105,
      "bank": 2106,
      "himself": 2107,
      "taste": 2108,
      "shouted": 2109,
      "divor": 2110,
      "songs": 2111,
      "salad": 2112,
      "classical": 2113,
      "began": 2114,
      "trust": 2115,
      "worth": 2116,
      "forgot": 2117,
      "words": 2118,
      "runs": 2119,
      "lead": 2120,
      "moving": 2121,
      "breakfast": 2122,
      "grou": 2123,
      "middle": 2124,
      "difficult": 2125,
      "rough": 2126,
      "cop": 2127,
      "conf": 2128,
      "chef": 2129,
      "younger": 2130,
      "ico": 2131,
      "mcdonal": 2132,
      "exper": 2133,
      "surfing": 2134,
      "wished": 2135,
      "ited": 2136,
      "pac": 2137,
      "milk": 2138,
      "spir": 2139,
      "phi": 2140,
      "forget": 2141,
      "dangerous": 2142,
      "shelter": 2143,
      "videos": 2144,
      "couple": 2145,
      "surprised": 2146,
      "surprise": 2147,
      "gonna": 2148,
      "num": 2149,
      "jour": 2150,
      "ben": 2151,
      "myster": 2152,
      "enter": 2153,
      "Da": 2154,
      "woods": 2155,
      "lab": 2156,
      "concert": 2157,
      "hion": 2158,
      "plane": 2159,
      "veggies": 2160,
      "flying": 2161,
      "figure": 2162,
      "meant": 2163,
      "swing": 2164,
      "Tommy": 2165,
      "blocks": 2166,
      "contin": 2167,
      "account": 2168,
      "camping": 2169,
      "spent": 2170,
      "news": 2171,
      "held": 2172,
      "fave": 2173,
      "chance": 2174,
      "retire": 2175,
      "south": 2176,
      "cts": 2177,
      "apples": 2178,
      "lesson": 2179,
      "cried": 2180,
      "snack": 2181,
      "marke": 2182,
      "anna": 2183,
      "ient": 2184,
      "history": 2185,
      "professional": 2186,
      "Now": 2187,
      "worried": 2188,
      "ned": 2189,
      "between": 2190,
      "except": 2191,
      "chin": 2192,
      "baker": 2193,
      "Wow": 2194,
      "astic": 2195,
      "blon": 2196,
      "potat": 2197,
      "poor": 2198,
      "although": 2199,
      "active": 2200,
      "ployed": 2201,
      "adopt": 2202,
      "disapp": 2203,
      "followed": 2204,
      "sales": 2205,
      "waved": 2206,
      "tom": 2207,
      "happily": 2208,
      "suppo": 2209,
      "second": 2210,
      "corn": 2211,
      "gif": 2212,
      "pack": 2213,
      "hole": 2214,
      "ared": 2215,
      "lion": 2216,
      "wheel": 2217,
      "trouble": 2218,
      "blonde": 2219,
      "brought": 2220,
      "sense": 2221,
      "throw": 2222,
      "gives": 2223,
      "dragon": 2224,
      "besides": 2225,
      "ities": 2226,
      "trucks": 2227,
      "spending": 2228,
      "allow": 2229,
      "pan": 2230,
      "driver": 2231,
      "gam": 2232,
      "charac": 2233,
      "mal": 2234,
      "ky": 2235,
      "wedding": 2236,
      "tele": 2237,
      "anime": 2238,
      "violin": 2239,
      "thinks": 2240,
      "american": 2241,
      "nut": 2242,
      "mouse": 2243,
      "date": 2244,
      "clown": 2245,
      "vol": 2246,
      "drag": 2247,
      "There": 2248,
      "ergy": 2249,
      "tour": 2250,
      "growing": 2251,
      "feed": 2252,
      "carto": 2253,
      "eye": 2254,
      "bread": 2255,
      "30": 2256,
      "glasses": 2257,
      "leaves": 2258,
      "dry": 2259,
      "arri": 2260,
      "workout": 2261,
      "relationship": 2262,
      "library": 2263,
      "tie": 2264,
      "butterfly": 2265,
      "west": 2266,
      "moms": 2267,
      "nation": 2268,
      "hid": 2269,
      "ising": 2270,
      "den": 2271,
      "fashion": 2272,
      "hunt": 2273,
      "needs": 2274,
      "thor": 2275,
      "daddy": 2276,
      "ls": 2277,
      "model": 2278,
      "ire": 2279,
      "order": 2280,
      "aust": 2281,
      "christmas": 2282,
      "classic": 2283,
      "ices": 2284,
      "Sally": 2285,
      "nap": 2286,
      "tun": 2287,
      "attend": 2288,
      "accountant": 2289,
      "experi": 2290,
      "fol": 2291,
      "market": 2292,
      "omen": 2293,
      "shape": 2294,
      "plays": 2295,
      "bills": 2296,
      "rican": 2297,
      "lawyer": 2298,
      "interested": 2299,
      "ino": 2300,
      "afford": 2301,
      "tend": 2302,
      "ont": 2303,
      "fries": 2304,
      "hallo": 2305,
      "gun": 2306,
      "women": 2307,
      "anyway": 2308,
      "feels": 2309,
      "raised": 2310,
      "listened": 2311,
      "olly": 2312,
      "wise": 2313,
      "polit": 2314,
      "unfortunately": 2315,
      "lon": 2316,
      "bath": 2317,
      "holi": 2318,
      "window": 2319,
      "hopped": 2320,
      "daily": 2321,
      "lose": 2322,
      "medi": 2323,
      "wine": 2324,
      "op": 2325,
      "kne": 2326,
      "halloween": 2327,
      "dragons": 2328,
      "wanna": 2329,
      "bell": 2330,
      "log": 2331,
      "round": 2332,
      "cri": 2333,
      "itary": 2334,
      "www": 2335,
      "comfort": 2336,
      "ions": 2337,
      "skin": 2338,
      "wearing": 2339,
      "hip": 2340,
      "tic": 2341,
      "tight": 2342,
      "sever": 2343,
      "mis": 2344,
      "owner": 2345,
      "ranch": 2346,
      "wash": 2347,
      "couch": 2348,
      "cost": 2349,
      "quit": 2350,
      "Benny": 2351,
      "filled": 2352,
      "makeup": 2353,
      "creative": 2354,
      "ballet": 2355,
      "prote": 2356,
      "ased": 2357,
      "actor": 2358,
      "enty": 2359,
      "military": 2360,
      "val": 2361,
      "mexico": 2362,
      "cele": 2363,
      "ants": 2364,
      "organi": 2365,
      "longer": 2366,
      "rocks": 2367,
      "across": 2368,
      "group": 2369,
      "mac": 2370,
      "stayed": 2371,
      "cir": 2372,
      "herself": 2373,
      "cleaning": 2374,
      "remembered": 2375,
      "edu": 2376,
      "reach": 2377,
      "sunny": 2378,
      "shower": 2379,
      "consider": 2380,
      "forward": 2381,
      "rus": 2382,
      "reli": 2383,
      "forever": 2384,
      "police": 2385,
      "question": 2386,
      "\".": 2387,
      "gold": 2388,
      "die": 2389,
      "oose": 2390,
      "daughters": 2391,
      "choice": 2392,
      "hurrican": 2393,
      "gest": 2394,
      "det": 2395,
      "shri": 2396,
      "anywhere": 2397,
      "het": 2398,
      "To": 2399,
      "princess": 2400,
      "north": 2401,
      "factory": 2402,
      "fut": 2403,
      "meal": 2404,
      "using": 2405,
      "river": 2406,
      "dropped": 2407,
      "bio": 2408,
      "fing": 2409,
      "bacon": 2410,
      "jam": 2411,
      "Hello": 2412,
      "nails": 2413,
      "mountains": 2414,
      "word": 2415,
      "building": 2416,
      "hill": 2417,
      "bers": 2418,
      "radio": 2419,
      "celebr": 2420,
      "exactly": 2421,
      "leg": 2422,
      "fancy": 2423,
      "orge": 2424,
      "computers": 2425,
      "sort": 2426,
      "engineer": 2427,
      "ban": 2428,
      "carefully": 2429,
      "future": 2430,
      "horror": 2431,
      "desig": 2432,
      "At": 2433,
      "juice": 2434,
      "common": 2435,
      "comple": 2436,
      "boss": 2437,
      "ued": 2438,
      "aghet": 2439,
      "aghetti": 2440,
      "spaghetti": 2441,
      "planning": 2442,
      "gig": 2443,
      "publ": 2444,
      "mist": 2445,
      "produ": 2446,
      "Em": 2447,
      "lazy": 2448,
      "motor": 2449,
      "paris": 2450,
      "reward": 2451,
      "seven": 2452,
      "ummy": 2453,
      "nose": 2454,
      "states": 2455,
      "comic": 2456,
      "uffy": 2457,
      "thrones": 2458,
      "poss": 2459,
      "spl": 2460,
      "ural": 2461,
      "sons": 2462,
      "pus": 2463,
      "pray": 2464,
      "post": 2465,
      "educat": 2466,
      "ert": 2467,
      "Billy": 2468,
      "Jim": 2469,
      "ises": 2470,
      "heavy": 2471,
      "marketing": 2472,
      "shrimp": 2473,
      "bie": 2474,
      "lift": 2475,
      "shy": 2476,
      "hero": 2477,
      "saving": 2478,
      "event": 2479,
      "serious": 2480,
      "stars": 2481,
      "bull": 2482,
      "amed": 2483,
      "burgers": 2484,
      "coast": 2485,
      "allergies": 2486,
      "gener": 2487,
      "shoo": 2488,
      "lif": 2489,
      "acting": 2490,
      "dirty": 2491,
      "Jen": 2492,
      "theater": 2493,
      "bing": 2494,
      "language": 2495,
      "Daisy": 2496,
      "tive": 2497,
      "answer": 2498,
      "dolls": 2499,
      "photography": 2500,
      "atul": 2501,
      "Finally": 2502,
      "jack": 2503,
      "reg": 2504,
      "singer": 2505,
      "activ": 2506,
      "bat": 2507,
      "12": 2508,
      "castle": 2509,
      "vous": 2510,
      "fla": 2511,
      "grill": 2512,
      "ler": 2513,
      "female": 2514,
      "tattoos": 2515,
      "higan": 2516,
      "michigan": 2517,
      "faster": 2518,
      "plants": 2519,
      "wet": 2520,
      "treat": 2521,
      "scre": 2522,
      "wings": 2523,
      "decor": 2524,
      "explain": 2525,
      "host": 2526,
      "frog": 2527,
      "netfli": 2528,
      "netflix": 2529,
      "station": 2530,
      "bored": 2531,
      "graduate": 2532,
      "congratul": 2533,
      "congrats": 2534,
      "fantas": 2535,
      "pres": 2536,
      "commun": 2537,
      "arrived": 2538,
      "liter": 2539,
      "awful": 2540,
      "bigger": 2541,
      "kill": 2542,
      "writer": 2543,
      "farmer": 2544,
      "fiction": 2545,
      "nervous": 2546,
      "itch": 2547,
      "frid": 2548,
      "pill": 2549,
      "tiny": 2550,
      "talent": 2551,
      "hop": 2552,
      "chill": 2553,
      "kiss": 2554,
      "reason": 2555,
      "comics": 2556,
      "las": 2557,
      "author": 2558,
      "psy": 2559,
      "versity": 2560,
      "spark": 2561,
      "squir": 2562,
      "kn": 2563,
      "kets": 2564,
      "owl": 2565,
      "drove": 2566,
      "liz": 2567,
      "test": 2568,
      "inc": 2569,
      "grate": 2570,
      "manag": 2571,
      "asks": 2572,
      "OK": 2573,
      "tery": 2574,
      "nursing": 2575,
      "hide": 2576,
      "style": 2577,
      "bowl": 2578,
      "entist": 2579,
      "ray": 2580,
      "favorit": 2581,
      "ip": 2582,
      "space": 2583,
      "medic": 2584,
      "mill": 2585,
      "sail": 2586,
      "several": 2587,
      "blood": 2588,
      "horrible": 2589,
      "Molly": 2590,
      "veter": 2591,
      "iphone": 2592,
      "ak": 2593,
      "whatever": 2594,
      "duck": 2595,
      "san": 2596,
      "towards": 2597,
      "vie": 2598,
      "congratulations": 2599,
      "university": 2600,
      "collection": 2601,
      "suc": 2602,
      "lay": 2603,
      "continued": 2604,
      "smiles": 2605,
      "means": 2606,
      "pon": 2607,
      "somewhere": 2608,
      "youngest": 2609,
      "squirrel": 2610,
      "thre": 2611,
      "cycle": 2612,
      "ns": 2613,
      "cape": 2614,
      "disney": 2615,
      "gardening": 2616,
      "inde": 2617,
      "librarian": 2618,
      "span": 2619,
      "Why": 2620,
      "moon": 2621,
      "dom": 2622,
      "ey": 2623,
      "ith": 2624,
      "org": 2625,
      "rand": 2626,
      "nel": 2627,
      "cow": 2628,
      "swee": 2629,
      "honey": 2630,
      "eu": 2631,
      "Amy": 2632,
      "german": 2633,
      "auto": 2634,
      "ballo": 2635,
      "seeing": 2636,
      "usa": 2637,
      "rare": 2638,
      "eth": 2639,
      "skate": 2640,
      "poet": 2641,
      "vill": 2642,
      "grateful": 2643,
      "joh": 2644,
      "turns": 2645,
      "front": 2646,
      "alous": 2647,
      "dreams": 2648,
      "attle": 2649,
      "cting": 2650,
      "nie": 2651,
      "mechan": 2652,
      "peaceful": 2653,
      "monkey": 2654,
      "inted": 2655,
      "students": 2656,
      "cru": 2657,
      "50": 2658,
      "parrot": 2659,
      "types": 2660,
      "cab": 2661,
      "dish": 2662,
      "europe": 2663,
      "gar": 2664,
      "lease": 2665,
      "jokes": 2666,
      "favour": 2667,
      "jealous": 2668,
      "ina": 2669,
      "support": 2670,
      "miles": 2671,
      "shir": 2672,
      "spanish": 2673,
      "comfortable": 2674,
      "opp": 2675,
      "orig": 2676,
      "ee": 2677,
      "sunday": 2678,
      "climbed": 2679,
      "sandw": 2680,
      "suppose": 2681,
      "card": 2682,
      "museums": 2683,
      "lies": 2684,
      "oper": 2685,
      "track": 2686,
      "mou": 2687,
      "vin": 2688,
      "mary": 2689,
      "scr": 2690,
      "boots": 2691,
      "worker": 2692,
      "shine": 2693,
      "stressful": 2694,
      "icing": 2695,
      "essed": 2696,
      "spring": 2697,
      "queen": 2698,
      "swam": 2699,
      "spicy": 2700,
      "grown": 2701,
      "complete": 2702,
      "favourite": 2703,
      "adopted": 2704,
      "ore": 2705,
      "character": 2706,
      "diving": 2707,
      "favorites": 2708,
      "clear": 2709,
      "starting": 2710,
      "bud": 2711,
      "fantastic": 2712,
      "cross": 2713,
      "john": 2714,
      "Come": 2715,
      "mate": 2716,
      "stor": 2717,
      "upset": 2718,
      "stones": 2719,
      "18": 2720,
      "alab": 2721,
      "divorced": 2722,
      "education": 2723,
      "internet": 2724,
      "plus": 2725,
      "caught": 2726,
      "mouth": 2727,
      "covered": 2728,
      "blan": 2729,
      "rewarding": 2730,
      "pulled": 2731,
      "por": 2732,
      "skill": 2733,
      "Grand": 2734,
      "Jill": 2735,
      "oof": 2736,
      "hood": 2737,
      "energy": 2738,
      "vest": 2739,
      "counting": 2740,
      "vision": 2741,
      "alabama": 2742,
      "cards": 2743,
      "fantasy": 2744,
      "matter": 2745,
      "pieces": 2746,
      "explor": 2747,
      "smoke": 2748,
      "balls": 2749,
      "ior": 2750,
      "twin": 2751,
      "partic": 2752,
      "kitten": 2753,
      "19": 2754,
      "dude": 2755,
      "dancer": 2756,
      "ota": 2757,
      "italy": 2758,
      "plenty": 2759,
      "medical": 2760,
      "wasn": 2761,
      "appreci": 2762,
      "path": 2763,
      "soup": 2764,
      "treasure": 2765,
      "training": 2766,
      "tood": 2767,
      "anno": 2768,
      "pepper": 2769,
      "dest": 2770,
      "mcdonalds": 2771,
      "ids": 2772,
      "bite": 2773,
      "amazed": 2774,
      "twi": 2775,
      "mall": 2776,
      "aww": 2777,
      "piece": 2778,
      "carry": 2779,
      "create": 2780,
      "easier": 2781,
      "junk": 2782,
      "bles": 2783,
      "berries": 2784,
      "sadly": 2785,
      "tasty": 2786,
      "personal": 2787,
      "inv": 2788,
      "ards": 2789,
      "certain": 2790,
      "waited": 2791,
      "guard": 2792,
      "jer": 2793,
      "doctors": 2794,
      "smoo": 2795,
      "lor": 2796,
      "nearby": 2797,
      "shift": 2798,
      "phe": 2799,
      "ana": 2800,
      "ders": 2801,
      "terri": 2802,
      "action": 2803,
      "meeting": 2804,
      "obs": 2805,
      "france": 2806,
      "magical": 2807,
      "minds": 2808,
      "spell": 2809,
      "harry": 2810,
      "experience": 2811,
      "sleeping": 2812,
      "chang": 2813,
      "taco": 2814,
      "roses": 2815,
      "colorful": 2816,
      "hous": 2817,
      "disappo": 2818,
      "Some": 2819,
      "pies": 2820,
      "planes": 2821,
      "firm": 2822,
      "Oh": 2823,
      "sco": 2824,
      "america": 2825,
      "bub": 2826,
      "kno": 2827,
      "relig": 2828,
      "indeed": 2829,
      "fox": 2830,
      "tries": 2831,
      "visiting": 2832,
      "museum": 2833,
      "goal": 2834,
      "grandmother": 2835,
      "ctr": 2836,
      "hurricane": 2837,
      "ined": 2838,
      "smooth": 2839,
      "service": 2840,
      "arts": 2841,
      "mustang": 2842,
      "beauty": 2843,
      "ests": 2844,
      "normal": 2845,
      "pays": 2846,
      "instrument": 2847,
      "nat": 2848,
      "anx": 2849,
      "spect": 2850,
      "pump": 2851,
      "ib": 2852,
      "cancer": 2853,
      "cartoons": 2854,
      "mir": 2855,
      "moral": 2856,
      "teddy": 2857,
      "ery": 2858,
      "antic": 2859,
      "uggl": 2860,
      "prince": 2861,
      "compl": 2862,
      "cul": 2863,
      "rots": 2864,
      "arten": 2865,
      "posit": 2866,
      "hahah": 2867,
      "beet": 2868,
      "death": 2869,
      "promised": 2870,
      "mes": 2871,
      "burger": 2872,
      "threw": 2873,
      "unless": 2874,
      "16": 2875,
      "instruments": 2876,
      "bt": 2877,
      "advice": 2878,
      "comedy": 2879,
      "rote": 2880,
      "belong": 2881,
      "wrote": 2882,
      "ying": 2883,
      "navy": 2884,
      "gentle": 2885,
      "seafood": 2886,
      "env": 2887,
      "ffic": 2888,
      "Soon": 2889,
      "ency": 2890,
      "simple": 2891,
      "mach": 2892,
      "laughing": 2893,
      "ghost": 2894,
      "sugar": 2895,
      "point": 2896,
      "shared": 2897,
      "houses": 2898,
      "happens": 2899,
      "poetry": 2900,
      "ahahah": 2901,
      "slowly": 2902,
      "seas": 2903,
      "golf": 2904,
      "none": 2905,
      "keeping": 2906,
      "croche": 2907,
      "patient": 2908,
      "series": 2909,
      "lia": 2910,
      "closed": 2911,
      "monster": 2912,
      "jewel": 2913,
      "russ": 2914,
      "national": 2915,
      "genre": 2916,
      "height": 2917,
      "electr": 2918,
      "adore": 2919,
      "tomat": 2920,
      "sam": 2921,
      "drums": 2922,
      "seattle": 2923,
      "honestly": 2924,
      "All": 2925,
      "fairy": 2926,
      "amp": 2927,
      "whis": 2928,
      "Daddy": 2929,
      "selling": 2930,
      "marath": 2931,
      "waitress": 2932,
      "mail": 2933,
      "15": 2934,
      "orable": 2935,
      "straight": 2936,
      "rose": 2937,
      "potatoes": 2938,
      "number": 2939,
      "popular": 2940,
      "send": 2941,
      "chinese": 2942,
      "ines": 2943,
      "mechanic": 2944,
      "vic": 2945,
      "knee": 2946,
      "aud": 2947,
      "adventures": 2948,
      "trans": 2949,
      "jud": 2950,
      "nal": 2951,
      "sold": 2952,
      "uce": 2953,
      "cycl": 2954,
      "mend": 2955,
      "calm": 2956,
      "focus": 2957,
      "0s": 2958,
      "techno": 2959,
      "Mama": 2960,
      "clou": 2961,
      "pig": 2962,
      "knows": 2963,
      "ucky": 2964,
      "tons": 2965,
      "wag": 2966,
      "island": 2967,
      "Okay": 2968,
      "practicing": 2969,
      "tower": 2970,
      "nast": 2971,
      "dire": 2972,
      "mystery": 2973,
      "wis": 2974,
      "respect": 2975,
      "jell": 2976,
      "onto": 2977,
      "climbing": 2978,
      "bugs": 2979,
      "hmmm": 2980,
      "mart": 2981,
      "fu": 2982,
      "giving": 2983,
      "toes": 2984,
      "gift": 2985,
      "hipp": 2986,
      "staying": 2987,
      "homework": 2988,
      "fact": 2989,
      "designer": 2990,
      "pher": 2991,
      "alive": 2992,
      "trave": 2993,
      "odd": 2994,
      "bill": 2995,
      "regular": 2996,
      "handle": 2997,
      "lessons": 2998,
      "london": 2999,
      "ail": 3000,
      "dou": 3001,
      "ache": 3002,
      "rainbow": 3003,
      "traveled": 3004,
      "carrots": 3005,
      "invol": 3006,
      "pand": 3007,
      "graph": 3008,
      "remind": 3009,
      "joke": 3010,
      "skiing": 3011,
      "veterin": 3012,
      "vegas": 3013,
      "ging": 3014,
      "politics": 3015,
      "pal": 3016,
      "eaking": 3017,
      "arms": 3018,
      "half": 3019,
      "trick": 3020,
      "bible": 3021,
      "ley": 3022,
      "Sure": 3023,
      "wide": 3024,
      "teen": 3025,
      "robot": 3026,
      "straw": 3027,
      "speaking": 3028,
      "gross": 3029,
      "recipes": 3030,
      "commend": 3031,
      "ctive": 3032,
      "paid": 3033,
      "eared": 3034,
      "higher": 3035,
      "oop": 3036,
      "saying": 3037,
      "fighting": 3038,
      "Mr": 3039,
      "travell": 3040,
      "Just": 3041,
      "nights": 3042,
      "gather": 3043,
      "sunshine": 3044,
      "boston": 3045,
      "push": 3046,
      "channel": 3047,
      "manage": 3048,
      "grandchildren": 3049,
      "gin": 3050,
      "eventually": 3051,
      "success": 3052,
      "whenever": 3053,
      "goo": 3054,
      "itty": 3055,
      "blind": 3056,
      "therap": 3057,
      "human": 3058,
      "nephe": 3059,
      "ied": 3060,
      "beard": 3061,
      "creature": 3062,
      "bands": 3063,
      "fried": 3064,
      "woke": 3065,
      "crying": 3066,
      "neck": 3067,
      "boun": 3068,
      "terday": 3069,
      "ohi": 3070,
      "pub": 3071,
      "velo": 3072,
      "rude": 3073,
      "depen": 3074,
      "balloon": 3075,
      "depends": 3076,
      "soda": 3077,
      "case": 3078,
      "telling": 3079,
      "offic": 3080,
      "golden": 3081,
      "fami": 3082,
      "ale": 3083,
      "bb": 3084,
      "tru": 3085,
      "cher": 3086,
      "relieve": 3087,
      "casino": 3088,
      "lves": 3089,
      "kar": 3090,
      "tori": 3091,
      "holding": 3092,
      "tos": 3093,
      "Be": 3094,
      "ohio": 3095,
      "satur": 3096,
      "personally": 3097,
      "bucket": 3098,
      "stepped": 3099,
      "dye": 3100,
      "offer": 3101,
      "bass": 3102,
      "whist": 3103,
      "locat": 3104,
      "utes": 3105,
      "passionate": 3106,
      "taken": 3107,
      "usting": 3108,
      "musician": 3109,
      "medicine": 3110,
      "blog": 3111,
      "neither": 3112,
      "dig": 3113,
      "fes": 3114,
      "sang": 3115,
      "pir": 3116,
      "sewing": 3117,
      "avo": 3118,
      "drinks": 3119,
      "yesterday": 3120,
      "traffic": 3121,
      "mentary": 3122,
      "tuna": 3123,
      "dies": 3124,
      "fence": 3125,
      "exploring": 3126,
      "hoped": 3127,
      "fear": 3128,
      "sues": 3129,
      "reminds": 3130,
      "backyard": 3131,
      "stock": 3132,
      "loving": 3133,
      "Mary": 3134,
      "jim": 3135,
      "aa": 3136,
      "facebook": 3137,
      "romantic": 3138,
      "ii": 3139,
      "finding": 3140,
      "serve": 3141,
      "psycho": 3142,
      "bench": 3143,
      "match": 3144,
      "anut": 3145,
      "minutes": 3146,
      "dess": 3147,
      "due": 3148,
      "beans": 3149,
      "storm": 3150,
      "adorable": 3151,
      "helpful": 3152,
      "blanket": 3153,
      "noises": 3154,
      "exam": 3155,
      "spon": 3156,
      "unique": 3157,
      "competition": 3158,
      "meals": 3159,
      "issues": 3160,
      "clouds": 3161,
      "rage": 3162,
      "motorcycle": 3163,
      "appreciate": 3164,
      "itive": 3165,
      "television": 3166,
      "flavor": 3167,
      "jar": 3168,
      "parent": 3169,
      "kat": 3170,
      "pudd": 3171,
      "eh": 3172,
      "peanut": 3173,
      "vert": 3174,
      "surger": 3175,
      "tro": 3176,
      "soci": 3177,
      "maga": 3178,
      "pol": 3179,
      "nyc": 3180,
      "Hi": 3181,
      "stink": 3182,
      "basket": 3183,
      "possible": 3184,
      "journal": 3185,
      "cin": 3186,
      "Grandma": 3187,
      "brain": 3188,
      "chase": 3189,
      "opera": 3190,
      "sne": 3191,
      "memor": 3192,
      "reader": 3193,
      "gum": 3194,
      "coach": 3195,
      "atten": 3196,
      "wever": 3197,
      "Please": 3198,
      "sour": 3199,
      "photos": 3200,
      "organized": 3201,
      "film": 3202,
      "particular": 3203,
      "wouldn": 3204,
      "size": 3205,
      "eld": 3206,
      "ppers": 3207,
      "rank": 3208,
      "fruits": 3209,
      "youre": 3210,
      "hurts": 3211,
      "dol": 3212,
      "choose": 3213,
      "popcorn": 3214,
      "puzz": 3215,
      "ot": 3216,
      "sauce": 3217,
      "acce": 3218,
      "addic": 3219,
      "dor": 3220,
      "folk": 3221,
      "ison": 3222,
      "ansas": 3223,
      "lover": 3224,
      "insur": 3225,
      "insurance": 3226,
      "rolling": 3227,
      "tiv": 3228,
      "employed": 3229,
      "tar": 3230,
      "Mum": 3231,
      "coho": 3232,
      "alcoho": 3233,
      "cray": 3234,
      "bakery": 3235,
      "deliver": 3236,
      "sew": 3237,
      "iled": 3238,
      "viking": 3239,
      "officer": 3240,
      "bare": 3241,
      "puts": 3242,
      "justin": 3243,
      "curly": 3244,
      "supp": 3245,
      "manager": 3246,
      "missed": 3247,
      "colorado": 3248,
      "japanese": 3249,
      "lizard": 3250,
      "potter": 3251,
      "goodness": 3252,
      "shirt": 3253,
      "cookie": 3254,
      "restaurants": 3255,
      "promise": 3256,
      "parties": 3257,
      "athlet": 3258,
      "sight": 3259,
      "known": 3260,
      "legs": 3261,
      "soul": 3262,
      "hell": 3263,
      "fake": 3264,
      "suddenly": 3265,
      "eleph": 3266,
      "research": 3267,
      "rul": 3268,
      "phys": 3269,
      "exha": 3270,
      "teeth": 3271,
      "holiday": 3272,
      "subject": 3273,
      "gn": 3274,
      "confused": 3275,
      "collecting": 3276,
      "dive": 3277,
      "wondered": 3278,
      "camer": 3279,
      "liar": 3280,
      "naught": 3281,
      "chickens": 3282,
      "Emma": 3283,
      "attention": 3284,
      "breed": 3285,
      "ram": 3286,
      "spi": 3287,
      "asleep": 3288,
      "ption": 3289,
      "clothing": 3290,
      "giant": 3291,
      "wake": 3292,
      "friday": 3293,
      "dating": 3294,
      "suck": 3295,
      "veterinarian": 3296,
      "brand": 3297,
      "recommend": 3298,
      "corvet": 3299,
      "nuts": 3300,
      "ism": 3301,
      "tern": 3302,
      "tem": 3303,
      "usual": 3304,
      "pleasure": 3305,
      "recor": 3306,
      "crime": 3307,
      "crab": 3308,
      "ining": 3309,
      "sweets": 3310,
      "talked": 3311,
      "craf": 3312,
      "beatles": 3313,
      "honda": 3314,
      "naughty": 3315,
      "ues": 3316,
      "oldest": 3317,
      "pushed": 3318,
      "public": 3319,
      "twice": 3320,
      "Jimmy": 3321,
      "craft": 3322,
      "rub": 3323,
      "scen": 3324,
      "problems": 3325,
      "parks": 3326,
      "branch": 3327,
      "hugs": 3328,
      "incl": 3329,
      "lier": 3330,
      "masters": 3331,
      "raise": 3332,
      "clapped": 3333,
      "fill": 3334,
      "surgery": 3335,
      "bucks": 3336,
      "shapes": 3337,
      "austra": 3338,
      "suit": 3339,
      "punk": 3340,
      "depress": 3341,
      "une": 3342,
      "hawa": 3343,
      "natural": 3344,
      "guns": 3345,
      "mark": 3346,
      "hates": 3347,
      "saturday": 3348,
      "bunch": 3349,
      "lou": 3350,
      "earlier": 3351,
      "media": 3352,
      "40": 3353,
      "Fl": 3354,
      "mit": 3355,
      "swings": 3356,
      "aper": 3357,
      "obsessed": 3358,
      "deaf": 3359,
      "Inside": 3360,
      "fixed": 3361,
      "deer": 3362,
      "gue": 3363,
      "els": 3364,
      "cheap": 3365,
      "wrest": 3366,
      "isher": 3367,
      "cheered": 3368,
      "shoot": 3369,
      "babies": 3370,
      "australia": 3371,
      "fascin": 3372,
      "etc": 3373,
      "mars": 3374,
      "jac": 3375,
      "general": 3376,
      "weak": 3377,
      "washing": 3378,
      "superman": 3379,
      "pocket": 3380,
      "tit": 3381,
      "ireland": 3382,
      "rated": 3383,
      "bon": 3384,
      "bars": 3385,
      "skateboard": 3386,
      "mistake": 3387,
      "accept": 3388,
      "pigs": 3389,
      "leather": 3390,
      "rug": 3391,
      "kansas": 3392,
      "zing": 3393,
      "kidding": 3394,
      "000": 3395,
      "25": 3396,
      "Their": 3397,
      "haps": 3398,
      "accounting": 3399,
      "mush": 3400,
      "fingers": 3401,
      "ulous": 3402,
      "elementary": 3403,
      "biggest": 3404,
      "tax": 3405,
      "priv": 3406,
      "pilot": 3407,
      "neighbors": 3408,
      "repair": 3409,
      "occas": 3410,
      "invest": 3411,
      "ubby": 3412,
      "explained": 3413,
      "awe": 3414,
      "ching": 3415,
      "excell": 3416,
      "inspir": 3417,
      "competitive": 3418,
      "ahh": 3419,
      "literature": 3420,
      "hawaii": 3421,
      "coli": 3422,
      "attr": 3423,
      "shell": 3424,
      "aut": 3425,
      "scrat": 3426,
      "retail": 3427,
      "Pet": 3428,
      "blame": 3429,
      "vil": 3430,
      "sla": 3431,
      "earth": 3432,
      "pire": 3433,
      "rolled": 3434,
      "perhaps": 3435,
      "hua": 3436,
      "oooo": 3437,
      "cooked": 3438,
      "spec": 3439,
      "visited": 3440,
      "shook": 3441,
      "tions": 3442,
      "esty": 3443,
      "Fluffy": 3444,
      "actress": 3445,
      "fran": 3446,
      "marry": 3447,
      "excellent": 3448,
      "corner": 3449,
      "intro": 3450,
      "mates": 3451,
      "ounds": 3452,
      "entertain": 3453,
      "craw": 3454,
      "dads": 3455,
      "community": 3456,
      "todd": 3457,
      "however": 3458,
      "corvette": 3459,
      "accidentally": 3460,
      "seemed": 3461,
      "pect": 3462,
      "worst": 3463,
      "lights": 3464,
      "cue": 3465,
      "colour": 3466,
      "complain": 3467,
      "wand": 3468,
      "scream": 3469,
      "cabin": 3470,
      "chess": 3471,
      "bottle": 3472,
      "ude": 3473,
      "specif": 3474,
      "jewelry": 3475,
      "lock": 3476,
      "marri": 3477,
      "superhero": 3478,
      "located": 3479,
      "indust": 3480,
      "east": 3481,
      "mile": 3482,
      "trips": 3483,
      "coin": 3484,
      "17": 3485,
      "tells": 3486,
      "zzy": 3487,
      "aged": 3488,
      "baked": 3489,
      "environ": 3490,
      "nest": 3491,
      "sil": 3492,
      "mushroom": 3493,
      "nas": 3494,
      "teaches": 3495,
      "spin": 3496,
      "decide": 3497,
      "jects": 3498,
      "tial": 3499,
      "blow": 3500,
      "stair": 3501,
      "non": 3502,
      "gray": 3503,
      "illa": 3504,
      "Sammy": 3505,
      "annoying": 3506,
      "bald": 3507,
      "bled": 3508,
      "plate": 3509,
      "isa": 3510,
      "google": 3511,
      "Even": 3512,
      "Go": 3513,
      "partner": 3514,
      "chevy": 3515,
      "crochet": 3516,
      "igu": 3517,
      "kinderg": 3518,
      "fab": 3519,
      "scoo": 3520,
      "films": 3521,
      "escape": 3522,
      "ending": 3523,
      "jane": 3524,
      "teachers": 3525,
      "england": 3526,
      "mud": 3527,
      "charlie": 3528,
      "ferr": 3529,
      "against": 3530,
      "gging": 3531,
      "11": 3532,
      "biking": 3533,
      "environment": 3534,
      "weeks": 3535,
      "broc": 3536,
      "pin": 3537,
      "drank": 3538,
      "drop": 3539,
      "ination": 3540,
      "united": 3541,
      "anta": 3542,
      "asing": 3543,
      "berry": 3544,
      "drives": 3545,
      "ulti": 3546,
      "private": 3547,
      "burri": 3548,
      "admi": 3549,
      "holidays": 3550,
      "circus": 3551,
      "ko": 3552,
      "leag": 3553,
      "million": 3554,
      "skills": 3555,
      "ef": 3556,
      "touched": 3557,
      "lifesty": 3558,
      "bears": 3559,
      "racing": 3560,
      "tomatoes": 3561,
      "beef": 3562,
      "broccoli": 3563,
      "emo": 3564,
      "george": 3565,
      "vir": 3566,
      "sorts": 3567,
      "yal": 3568,
      "rules": 3569,
      "folks": 3570,
      "bikes": 3571,
      "lla": 3572,
      "subway": 3573,
      "thern": 3574,
      "donate": 3575,
      "indian": 3576,
      "lifestyle": 3577,
      "My": 3578,
      "breath": 3579,
      "marriage": 3580,
      "kite": 3581,
      "activities": 3582,
      "embar": 3583,
      "travelling": 3584,
      "snakes": 3585,
      "role": 3586,
      "trains": 3587,
      "incred": 3588,
      "icked": 3589,
      "cows": 3590,
      "eight": 3591,
      "ames": 3592,
      "grades": 3593,
      "fy": 3594,
      "spider": 3595,
      "chili": 3596,
      "view": 3597,
      "occasion": 3598,
      "basically": 3599,
      "karate": 3600,
      "lete": 3601,
      "mort": 3602,
      "trail": 3603,
      "cles": 3604,
      "athlete": 3605,
      "flu": 3606,
      "orgia": 3607,
      "load": 3608,
      "senior": 3609,
      "georgia": 3610,
      "stores": 3611,
      "dishes": 3612,
      "journey": 3613,
      "worse": 3614,
      "sharp": 3615,
      "Later": 3616,
      "cozy": 3617,
      "raining": 3618,
      "kick": 3619,
      "omg": 3620,
      "romance": 3621,
      "missing": 3622,
      "cloud": 3623,
      "chall": 3624,
      "pard": 3625,
      "selfish": 3626,
      "avoid": 3627,
      "cudd": 3628,
      "rice": 3629,
      "stone": 3630,
      "develo": 3631,
      "publish": 3632,
      "camera": 3633,
      "stant": 3634,
      "bru": 3635,
      "closet": 3636,
      "buying": 3637,
      "leaving": 3638,
      "bage": 3639,
      "frea": 3640,
      "highschool": 3641,
      "handful": 3642,
      "yup": 3643,
      "thrill": 3644,
      "bother": 3645,
      "present": 3646,
      "grandpa": 3647,
      "kindergarten": 3648,
      "constru": 3649,
      "cave": 3650,
      "unem": 3651,
      "certainly": 3652,
      "belt": 3653,
      "rol": 3654,
      "finan": 3655,
      "christian": 3656,
      "losing": 3657,
      "bummer": 3658,
      "gal": 3659,
      "sched": 3660,
      "rass": 3661,
      "bum": 3662,
      "scientist": 3663,
      "ittens": 3664,
      "tutor": 3665,
      "sweethe": 3666,
      "league": 3667,
      "embarrass": 3668,
      "ducks": 3669,
      "smiling": 3670,
      "phones": 3671,
      "ense": 3672,
      "commer": 3673,
      "hotel": 3674,
      "wore": 3675,
      "Good": 3676,
      "cooler": 3677,
      "prius": 3678,
      "14": 3679,
      "becoming": 3680,
      "unt": 3681,
      "interests": 3682,
      "culture": 3683,
      "headed": 3684,
      "starbucks": 3685,
      "inten": 3686,
      "walmart": 3687,
      "gosh": 3688,
      "snacks": 3689,
      "unemployed": 3690,
      "ideas": 3691,
      "speed": 3692,
      "pancakes": 3693,
      "sandwich": 3694,
      "grandparents": 3695,
      "protect": 3696,
      "secur": 3697,
      "How": 3698,
      "lottery": 3699,
      "ove": 3700,
      "industry": 3701,
      "thin": 3702,
      "rece": 3703,
      "dust": 3704,
      "bbq": 3705,
      "ded": 3706,
      "cycling": 3707,
      "bout": 3708,
      "danced": 3709,
      "flies": 3710,
      "divorce": 3711,
      "geo": 3712,
      "brit": 3713,
      "magaz": 3714,
      "crow": 3715,
      "roo": 3716,
      "keeper": 3717,
      "wave": 3718,
      "standing": 3719,
      "portland": 3720,
      "lu": 3721,
      "religious": 3722,
      "mcdonald": 3723,
      "lap": 3724,
      "relieved": 3725,
      "andy": 3726,
      "reality": 3727,
      "hiding": 3728,
      "iety": 3729,
      "steps": 3730,
      "anxiety": 3731,
      "sey": 3732,
      "stri": 3733,
      "cruise": 3734,
      "camp": 3735,
      "lob": 3736,
      "calling": 3737,
      "mans": 3738,
      "potato": 3739,
      "allowed": 3740,
      "worries": 3741,
      "oven": 3742,
      "exc": 3743,
      "conne": 3744,
      "nes": 3745,
      "elephant": 3746,
      "Of": 3747,
      "amps": 3748,
      "unders": 3749,
      "timore": 3750,
      "baltimore": 3751,
      "pants": 3752,
      "understood": 3753,
      "fra": 3754,
      "len": 3755,
      "sharing": 3756,
      "frust": 3757,
      "cking": 3758,
      "bush": 3759,
      "tickets": 3760,
      "acted": 3761,
      "nephews": 3762,
      "professionally": 3763,
      "forgive": 3764,
      "purse": 3765,
      "anti": 3766,
      "stric": 3767,
      "security": 3768,
      "ors": 3769,
      "ami": 3770,
      "def": 3771,
      "emp": 3772,
      "nit": 3773,
      "thankfully": 3774,
      "With": 3775,
      "lley": 3776,
      "mention": 3777,
      "whistle": 3778,
      "ric": 3779,
      "technology": 3780,
      "thum": 3781,
      "picnic": 3782,
      "alien": 3783,
      "frank": 3784,
      "acts": 3785,
      "aking": 3786,
      "button": 3787,
      "peppers": 3788,
      "pumpkin": 3789,
      "pregn": 3790,
      "construction": 3791,
      "candles": 3792,
      "messy": 3793,
      "familiar": 3794,
      "sleepy": 3795,
      "finishing": 3796,
      "icycle": 3797,
      "tables": 3798,
      "stret": 3799,
      "empty": 3800,
      "salesman": 3801,
      "doubt": 3802,
      "cos": 3803,
      "lying": 3804,
      "trade": 3805,
      "dessert": 3806,
      "flash": 3807,
      "ris": 3808,
      "ule": 3809,
      "brush": 3810,
      "shelf": 3811,
      "volunteering": 3812,
      "cis": 3813,
      "tiger": 3814,
      "harder": 3815,
      "subur": 3816,
      "biology": 3817,
      "page": 3818,
      "dentist": 3819,
      "oni": 3820,
      "stranger": 3821,
      "caro": 3822,
      "gaming": 3823,
      "uncle": 3824,
      "sara": 3825,
      "intern": 3826,
      "cashi": 3827,
      "mood": 3828,
      "ooh": 3829,
      "waves": 3830,
      "disab": 3831,
      "sticks": 3832,
      "newsp": 3833,
      "sof": 3834,
      "chased": 3835,
      "tiring": 3836,
      "metall": 3837,
      "machine": 3838,
      "volley": 3839,
      "dirt": 3840,
      "ended": 3841,
      "dear": 3842,
      "loyal": 3843,
      "situ": 3844,
      "retri": 3845,
      "taller": 3846,
      "products": 3847,
      "stairs": 3848,
      "aska": 3849,
      "treats": 3850,
      "shot": 3851,
      "garage": 3852,
      "easily": 3853,
      "heights": 3854,
      "niture": 3855,
      "apo": 3856,
      "furniture": 3857,
      "medit": 3858,
      "Hey": 3859,
      "shore": 3860,
      "bieber": 3861,
      "musical": 3862,
      "counts": 3863,
      "choir": 3864,
      "inary": 3865,
      "smelled": 3866,
      "falls": 3867,
      "bees": 3868,
      "painted": 3869,
      "clever": 3870,
      "seat": 3871,
      "shining": 3872,
      "perform": 3873,
      "micro": 3874,
      "200": 3875,
      "grey": 3876,
      "faces": 3877,
      "paw": 3878,
      "icle": 3879,
      "schedule": 3880,
      "items": 3881,
      "dolph": 3882,
      "barely": 3883,
      "constant": 3884,
      "stephen": 3885,
      "grandkids": 3886,
      "pile": 3887,
      "ashed": 3888,
      "note": 3889,
      "string": 3890,
      "steal": 3891,
      "successful": 3892,
      "idence": 3893,
      "penn": 3894,
      "putting": 3895,
      "buddy": 3896,
      "lemon": 3897,
      "Jenny": 3898,
      "nan": 3899,
      "dia": 3900,
      "logist": 3901,
      "anas": 3902,
      "jun": 3903,
      "athletic": 3904,
      "shad": 3905,
      "iders": 3906,
      "origin": 3907,
      "uggle": 3908,
      "sweetheart": 3909,
      "retriever": 3910,
      "freel": 3911,
      "selves": 3912,
      "sle": 3913,
      "ouch": 3914,
      "worm": 3915,
      "studies": 3916,
      "cashier": 3917,
      "sear": 3918,
      "donna": 3919,
      "ilt": 3920,
      "poin": 3921,
      "orn": 3922,
      "india": 3923,
      "spiders": 3924,
      "third": 3925,
      "saved": 3926,
      "Ted": 3927,
      "oke": 3928,
      "sunset": 3929,
      "stem": 3930,
      "judge": 3931,
      "bling": 3932,
      "comedi": 3933,
      "ients": 3934,
      "urs": 3935,
      "21": 3936,
      "distance": 3937,
      "burn": 3938,
      "spoon": 3939,
      "happiness": 3940,
      "perry": 3941,
      "metallica": 3942,
      "ends": 3943,
      "furry": 3944,
      "verse": 3945,
      "clients": 3946,
      "spirit": 3947,
      "marathons": 3948,
      "extre": 3949,
      "extreme": 3950,
      "rob": 3951,
      "letter": 3952,
      "jog": 3953,
      "socks": 3954,
      "appro": 3955,
      "fabulous": 3956,
      "clubs": 3957,
      "pod": 3958,
      "pointed": 3959,
      "dos": 3960,
      "pood": 3961,
      "lord": 3962,
      "bert": 3963,
      "arn": 3964,
      "costu": 3965,
      "sweater": 3966,
      "moder": 3967,
      "ather": 3968,
      "kara": 3969,
      "cure": 3970,
      "coat": 3971,
      "relate": 3972,
      "tware": 3973,
      "searched": 3974,
      "ilar": 3975,
      "vam": 3976,
      "snowman": 3977,
      "umber": 3978,
      "pounds": 3979,
      "fed": 3980,
      "fluffy": 3981,
      "nasty": 3982,
      "tool": 3983,
      "paying": 3984,
      "splash": 3985,
      "wealth": 3986,
      "cuis": 3987,
      "stressed": 3988,
      "engineering": 3989,
      "brid": 3990,
      "oy": 3991,
      "trad": 3992,
      "toyota": 3993,
      "horseback": 3994,
      "rise": 3995,
      "till": 3996,
      "cell": 3997,
      "talented": 3998,
      "300": 3999,
      "nfl": 4000,
      "hh": 4001,
      "kins": 4002,
      "cupcakes": 4003,
      "dam": 4004,
      "disappointed": 4005,
      "crack": 4006,
      "mand": 4007,
      "decorate": 4008,
      "carrot": 4009,
      "lands": 4010,
      "feather": 4011,
      "strawberries": 4012,
      "sundays": 4013,
      "tles": 4014,
      "brownies": 4015,
      "dyed": 4016,
      "yuck": 4017,
      "crayons": 4018,
      "elder": 4019,
      "finance": 4020,
      "tooth": 4021,
      "joined": 4022,
      "software": 4023,
      "vine": 4024,
      "electric": 4025,
      "spread": 4026,
      "zen": 4027,
      "ugly": 4028,
      "soap": 4029,
      "va": 4030,
      "vious": 4031,
      "originally": 4032,
      "screen": 4033,
      "oil": 4034,
      "respon": 4035,
      "stir": 4036,
      "karaoke": 4037,
      "block": 4038,
      "kissed": 4039,
      "pics": 4040,
      "angel": 4041,
      "numbers": 4042,
      "rural": 4043,
      "incredible": 4044,
      "100": 4045,
      "thick": 4046,
      "village": 4047,
      "suggest": 4048,
      "seed": 4049,
      "thir": 4050,
      "happening": 4051,
      "mirror": 4052,
      "useful": 4053,
      "delight": 4054,
      "tasted": 4055,
      "chee": 4056,
      "gummy": 4057,
      "washington": 4058,
      "bone": 4059,
      "ences": 4060,
      "thankful": 4061,
      "screamed": 4062,
      "nick": 4063,
      "fitness": 4064,
      "Where": 4065,
      "Emily": 4066,
      "knit": 4067,
      "irma": 4068,
      "cheesecake": 4069,
      "questions": 4070,
      "tage": 4071,
      "prepare": 4072,
      "iting": 4073,
      "mike": 4074,
      "sex": 4075,
      "unic": 4076,
      "desert": 4077,
      "lim": 4078,
      "original": 4079,
      "virgin": 4080,
      "Mittens": 4081,
      "acho": 4082,
      "recipe": 4083,
      "mixed": 4084,
      "aced": 4085,
      "agency": 4086,
      "papers": 4087,
      "aff": 4088,
      "web": 4089,
      "position": 4090,
      "changed": 4091,
      "salads": 4092,
      "cage": 4093,
      "searching": 4094,
      "programming": 4095,
      "farmers": 4096,
      "Are": 4097,
      "winning": 4098,
      "planet": 4099,
      "cloth": 4100,
      "appeared": 4101,
      "desk": 4102,
      "russia": 4103,
      "completely": 4104,
      "adventur": 4105,
      "elvis": 4106,
      "impro": 4107,
      "similar": 4108,
      "oly": 4109,
      "runner": 4110,
      "gate": 4111,
      "ears": 4112,
      "sack": 4113,
      "typic": 4114,
      "journalist": 4115,
      "carolin": 4116,
      "colo": 4117,
      "stat": 4118,
      "halo": 4119,
      "nd": 4120,
      "estate": 4121,
      "pride": 4122,
      "ref": 4123,
      "guil": 4124,
      "heads": 4125,
      "newspaper": 4126,
      "sig": 4127,
      "ville": 4128,
      "heal": 4129,
      "guilty": 4130,
      "cil": 4131,
      "burritos": 4132,
      "fif": 4133,
      "wondering": 4134,
      "pregnant": 4135,
      "painter": 4136,
      "clowns": 4137,
      "blew": 4138,
      "rainy": 4139,
      "ordin": 4140,
      "project": 4141,
      "ladder": 4142,
      "ians": 4143,
      "sarah": 4144,
      "mass": 4145,
      "jumping": 4146,
      "tha": 4147,
      "lean": 4148,
      "graphic": 4149,
      "fisher": 4150,
      "corre": 4151,
      "lobster": 4152,
      "beets": 4153,
      "pug": 4154,
      "kayaking": 4155,
      "olym": 4156,
      "carolina": 4157,
      "stamps": 4158,
      "balance": 4159,
      "pee": 4160,
      "Ro": 4161,
      "sheep": 4162,
      "alaska": 4163,
      "fied": 4164,
      "intell": 4165,
      "av": 4166,
      "mally": 4167,
      "scho": 4168,
      "homes": 4169,
      "comb": 4170,
      "voices": 4171,
      "26": 4172,
      "ahead": 4173,
      "Sometimes": 4174,
      "wars": 4175,
      "eager": 4176,
      "boats": 4177,
      "dep": 4178,
      "amazon": 4179,
      "blast": 4180,
      "impressed": 4181,
      "inspiration": 4182,
      "ki": 4183,
      "tank": 4184,
      "crafts": 4185,
      "system": 4186,
      "awhile": 4187,
      "above": 4188,
      "If": 4189,
      "gay": 4190,
      "returned": 4191,
      "civic": 4192,
      "llywood": 4193,
      "wra": 4194,
      "target": 4195,
      "pretended": 4196,
      "virginia": 4197,
      "advert": 4198,
      "alcohol": 4199,
      "cheerlead": 4200,
      "iches": 4201,
      "katy": 4202,
      "cisco": 4203,
      "creep": 4204,
      "discovered": 4205,
      "sandwiches": 4206,
      "cate": 4207,
      "phies": 4208,
      "expect": 4209,
      "compan": 4210,
      "packed": 4211,
      "mont": 4212,
      "roommates": 4213,
      "published": 4214,
      "silver": 4215,
      "wives": 4216,
      "tips": 4217,
      "lat": 4218,
      "verage": 4219,
      "foreign": 4220,
      "veggie": 4221,
      "shake": 4222,
      "scholar": 4223,
      "leaf": 4224,
      "calls": 4225,
      "southern": 4226,
      "constantly": 4227,
      "unge": 4228,
      "neckl": 4229,
      "planned": 4230,
      "normally": 4231,
      "condo": 4232,
      "gotten": 4233,
      "inspi": 4234,
      "hilar": 4235,
      "Jake": 4236,
      "contacts": 4237,
      "direction": 4238,
      "fascinating": 4239,
      "32": 4240,
      "bless": 4241,
      "heading": 4242,
      "ility": 4243,
      "center": 4244,
      "blues": 4245,
      "spotted": 4246,
      "embarrassed": 4247,
      "sl": 4248,
      "involved": 4249,
      "onic": 4250,
      "childhood": 4251,
      "powerful": 4252,
      "studied": 4253,
      "elderly": 4254,
      "gently": 4255,
      "pear": 4256,
      "parts": 4257,
      "kitty": 4258,
      "trainer": 4259,
      "physical": 4260,
      "maid": 4261,
      "sna": 4262,
      "habit": 4263,
      "dreaming": 4264,
      "bowling": 4265,
      "events": 4266,
      "Lisa": 4267,
      "luckily": 4268,
      "strict": 4269,
      "includ": 4270,
      "loaf": 4271,
      "runch": 4272,
      "seriously": 4273,
      "ships": 4274,
      "tid": 4275,
      "caring": 4276,
      "fold": 4277,
      "audition": 4278,
      "poodle": 4279,
      "gotcha": 4280,
      "knowing": 4281,
      "ferrari": 4282,
      "boxes": 4283,
      "jelly": 4284,
      "schools": 4285,
      "entire": 4286,
      "brings": 4287,
      "shakes": 4288,
      "greet": 4289,
      "Together": 4290,
      "80s": 4291,
      "sword": 4292,
      "nobody": 4293,
      "lex": 4294,
      "los": 4295,
      "spain": 4296,
      "miami": 4297,
      "gorge": 4298,
      "finger": 4299,
      "cart": 4300,
      "chew": 4301,
      "ount": 4302,
      "hollywood": 4303,
      "harm": 4304,
      "sent": 4305,
      "pony": 4306,
      "lines": 4307,
      "fridge": 4308,
      "indie": 4309,
      "salt": 4310,
      "umpy": 4311,
      "oppos": 4312,
      "comedies": 4313,
      "content": 4314,
      "smoking": 4315,
      "psi": 4316,
      "encou": 4317,
      "pepsi": 4318,
      "volleyball": 4319,
      "francisco": 4320,
      "upid": 4321,
      "frustrated": 4322,
      "kale": 4323,
      "colored": 4324,
      "meatloaf": 4325,
      "weed": 4326,
      "modern": 4327,
      "itor": 4328,
      "drum": 4329,
      "countries": 4330,
      "stupid": 4331,
      "coke": 4332,
      "loss": 4333,
      "control": 4334,
      "gain": 4335,
      "legal": 4336,
      "hears": 4337,
      "rup": 4338,
      "emplo": 4339,
      "diner": 4340,
      "sweetie": 4341,
      "howdy": 4342,
      "oregon": 4343,
      "flag": 4344,
      "salon": 4345,
      "placed": 4346,
      "babysit": 4347,
      "wanting": 4348,
      "fairs": 4349,
      "asha": 4350,
      "tan": 4351,
      "serv": 4352,
      "rides": 4353,
      "pment": 4354,
      "uc": 4355,
      "rescue": 4356,
      "tape": 4357,
      "freelance": 4358,
      "gorgeous": 4359,
      "rings": 4360,
      "master": 4361,
      "chasing": 4362,
      "adventurous": 4363,
      "fires": 4364,
      "geon": 4365,
      "excite": 4366,
      "creatures": 4367,
      "pas": 4368,
      "hilarious": 4369,
      "heat": 4370,
      "soo": 4371,
      "consin": 4372,
      "retirement": 4373,
      "biogra": 4374,
      "wisconsin": 4375,
      "diabet": 4376,
      "rush": 4377,
      "Here": 4378,
      "supposed": 4379,
      "deser": 4380,
      "roller": 4381,
      "vintage": 4382,
      "aunt": 4383,
      "œI": 4384,
      "requi": 4385,
      "beats": 4386,
      "steel": 4387,
      "kers": 4388,
      "understandable": 4389,
      "stinks": 4390,
      "cing": 4391,
      "35": 4392,
      "spray": 4393,
      "23": 4394,
      "shame": 4395,
      "lifting": 4396,
      "deter": 4397,
      "bubble": 4398,
      "zi": 4399,
      "nacho": 4400,
      "drew": 4401,
      "ckles": 4402,
      "knitting": 4403,
      "organic": 4404,
      "convers": 4405,
      "ruined": 4406,
      "average": 4407,
      "borrow": 4408,
      "lasag": 4409,
      "necklace": 4410,
      "correct": 4411,
      "uh": 4412,
      "ibly": 4413,
      "cod": 4414,
      "tub": 4415,
      "characters": 4416,
      "whiskey": 4417,
      "jello": 4418,
      "boarding": 4419,
      "allergy": 4420,
      "stream": 4421,
      "magazine": 4422,
      "notice": 4423,
      "picking": 4424,
      "vegetable": 4425,
      "cable": 4426,
      "protein": 4427,
      "motiv": 4428,
      "60": 4429,
      "china": 4430,
      "stage": 4431,
      "padd": 4432,
      "models": 4433,
      "excitement": 4434,
      "cree": 4435,
      "bridge": 4436,
      "loso": 4437,
      "philoso": 4438,
      "studio": 4439,
      "uses": 4440,
      "dislike": 4441,
      "chilling": 4442,
      "matches": 4443,
      "knocked": 4444,
      "smelly": 4445,
      "ctic": 4446,
      "bubbles": 4447,
      "perfor": 4448,
      "chose": 4449,
      "therapist": 4450,
      "grandson": 4451,
      "mmm": 4452,
      "fool": 4453,
      "24": 4454,
      "roof": 4455,
      "demand": 4456,
      "vanilla": 4457,
      "bulldog": 4458,
      "otic": 4459,
      "stood": 4460,
      "skitt": 4461,
      "barbe": 4462,
      "lasagna": 4463,
      "pierc": 4464,
      "worms": 4465,
      "roommate": 4466,
      "russian": 4467,
      "cuisine": 4468,
      "rs": 4469,
      "polite": 4470,
      "built": 4471,
      "nerd": 4472,
      "sir": 4473,
      "multi": 4474,
      "quar": 4475,
      "opin": 4476,
      "conver": 4477,
      "wheelchair": 4478,
      "catching": 4479,
      "exhausting": 4480,
      "spelling": 4481,
      "bul": 4482,
      "dings": 4483,
      "smells": 4484,
      "trum": 4485,
      "puddle": 4486,
      "thri": 4487,
      "llie": 4488,
      "drug": 4489,
      "nachos": 4490,
      "madonna": 4491,
      "apolo": 4492,
      "measure": 4493,
      "diam": 4494,
      "fluent": 4495,
      "sym": 4496,
      "truth": 4497,
      "apologi": 4498,
      "coins": 4499,
      "generous": 4500,
      "Stop": 4501,
      "supplies": 4502,
      "responsi": 4503,
      "louis": 4504,
      "opposite": 4505,
      "designing": 4506,
      "Mummy": 4507,
      "essor": 4508,
      "scarf": 4509,
      "desp": 4510,
      "struggl": 4511,
      "puzzle": 4512,
      "landed": 4513,
      "pickles": 4514,
      "photographer": 4515,
      "scratch": 4516,
      "inst": 4517,
      "outdoor": 4518,
      "scholarship": 4519,
      "mines": 4520,
      "gifted": 4521,
      "lifted": 4522,
      "random": 4523,
      "kicked": 4524,
      "ered": 4525,
      "maine": 4526,
      "zoom": 4527,
      "hire": 4528,
      "engaged": 4529,
      "braces": 4530,
      "ike": 4531,
      "kent": 4532,
      "hook": 4533,
      "breaks": 4534,
      "Who": 4535,
      "dresses": 4536,
      "surround": 4537,
      "jungle": 4538,
      "bean": 4539,
      "fright": 4540,
      "Rex": 4541,
      "chip": 4542,
      "owns": 4543,
      "centr": 4544,
      "alley": 4545,
      "unhealthy": 4546,
      "total": 4547,
      "ista": 4548,
      "ghosts": 4549,
      "comedian": 4550,
      "altern": 4551,
      "raven": 4552,
      "flex": 4553,
      "turtles": 4554,
      "homeless": 4555,
      "cture": 4556,
      "ners": 4557,
      "girlfriends": 4558,
      "champ": 4559,
      "yi": 4560,
      "weddings": 4561,
      "sting": 4562,
      "roar": 4563,
      "bedroom": 4564,
      "spoiled": 4565,
      "distr": 4566,
      "Teddy": 4567,
      "bent": 4568,
      "tidy": 4569,
      "bits": 4570,
      "philosophy": 4571,
      "creating": 4572,
      "lamp": 4573,
      "epend": 4574,
      "instructor": 4575,
      "Little": 4576,
      "enjoyable": 4577,
      "paintings": 4578,
      "beers": 4579,
      "cred": 4580,
      "wrestling": 4581,
      "trumpet": 4582,
      "income": 4583,
      "packing": 4584,
      "ron": 4585,
      "killed": 4586,
      "neighborhood": 4587,
      "kentucky": 4588,
      "switch": 4589,
      "mansion": 4590,
      "thoughts": 4591,
      "ups": 4592,
      "hunter": 4593,
      "decent": 4594,
      "barked": 4595,
      "pedi": 4596,
      "independ": 4597,
      "Everywhere": 4598,
      "uk": 4599,
      "Peter": 4600,
      "hidden": 4601,
      "mur": 4602,
      "bagels": 4603,
      "cries": 4604,
      "determin": 4605,
      "broad": 4606,
      "kni": 4607,
      "knife": 4608,
      "themselves": 4609,
      "pillow": 4610,
      "promo": 4611,
      "custom": 4612,
      "veh": 4613,
      "canadian": 4614,
      "scooter": 4615,
      "bruno": 4616,
      "lp": 4617,
      "cartoon": 4618,
      "ately": 4619,
      "hay": 4620,
      "ocd": 4621,
      "contact": 4622,
      "cater": 4623,
      "rink": 4624,
      "james": 4625,
      "mysterious": 4626,
      "vive": 4627,
      "giggl": 4628,
      "attractive": 4629,
      "cap": 4630,
      "cutting": 4631,
      "juicy": 4632,
      "bicycle": 4633,
      "pun": 4634,
      "twilight": 4635,
      "eats": 4636,
      "walls": 4637,
      "therapy": 4638,
      "admire": 4639,
      "rat": 4640,
      "minute": 4641,
      "dent": 4642,
      "coco": 4643,
      "oops": 4644,
      "shells": 4645,
      "custo": 4646,
      "earn": 4647,
      "kayak": 4648,
      "hikes": 4649,
      "Whi": 4650,
      "ashamed": 4651,
      "ada": 4652,
      "spears": 4653,
      "extremely": 4654,
      "invite": 4655,
      "dows": 4656,
      "unusual": 4657,
      "commute": 4658,
      "While": 4659,
      "budd": 4660,
      "tent": 4661,
      "spouse": 4662,
      "Help": 4663,
      "overseas": 4664,
      "barista": 4665,
      "situation": 4666,
      "shops": 4667,
      "chips": 4668,
      "fisherman": 4669,
      "beaches": 4670,
      "dull": 4671,
      "covery": 4672,
      "seek": 4673,
      "intellig": 4674,
      "Sus": 4675,
      "survive": 4676,
      "trained": 4677,
      "hubby": 4678,
      "archite": 4679,
      "uncomfortable": 4680,
      "caf": 4681,
      "fiance": 4682,
      "viously": 4683,
      "yelled": 4684,
      "ferre": 4685,
      "fry": 4686,
      "vera": 4687,
      "blond": 4688,
      "midwest": 4689,
      "yikes": 4690,
      "rarely": 4691,
      "bathroom": 4692,
      "settle": 4693,
      "ortun": 4694,
      "opportun": 4695,
      "bm": 4696,
      "goods": 4697,
      "rocket": 4698,
      "meatballs": 4699,
      "clay": 4700,
      "views": 4701,
      "pose": 4702,
      "gloo": 4703,
      "advertising": 4704,
      "twir": 4705,
      "hats": 4706,
      "disabled": 4707,
      "usted": 4708,
      "compete": 4709,
      "specifically": 4710,
      "heck": 4711,
      "zer": 4712,
      "wealthy": 4713,
      "lief": 4714,
      "orry": 4715,
      "goals": 4716,
      "sweat": 4717,
      "secretary": 4718,
      "positive": 4719,
      "glow": 4720,
      "tsbur": 4721,
      "husky": 4722,
      "wolf": 4723,
      "pittsbur": 4724,
      "credit": 4725,
      "Re": 4726,
      "admir": 4727,
      "serving": 4728,
      "hm": 4729,
      "reside": 4730,
      "chihua": 4731,
      "psychology": 4732,
      "maids": 4733,
      "sque": 4734,
      "eaten": 4735,
      "depressed": 4736,
      "Twe": 4737,
      "shoe": 4738,
      "Sorry": 4739,
      "cuba": 4740,
      "Pa": 4741,
      "hou": 4742,
      "marathon": 4743,
      "nascar": 4744,
      "rights": 4745,
      "iam": 4746,
      "turtle": 4747,
      "carried": 4748,
      "dying": 4749,
      "internship": 4750,
      "ience": 4751,
      "sets": 4752,
      "ntly": 4753,
      "creek": 4754,
      "showing": 4755,
      "tune": 4756,
      "celebrate": 4757,
      "tered": 4758,
      "dressing": 4759,
      "eral": 4760,
      "created": 4761,
      "farms": 4762,
      "competitions": 4763,
      "encyclo": 4764,
      "damn": 4765,
      "photograph": 4766,
      "sage": 4767,
      "campus": 4768,
      "cafe": 4769,
      "kittens": 4770,
      "dental": 4771,
      "mem": 4772,
      "eater": 4773,
      "dreamed": 4774,
      "bf": 4775,
      "barn": 4776,
      "crash": 4777,
      "adam": 4778,
      "pens": 4779,
      "nieces": 4780,
      "patter": 4781,
      "based": 4782,
      "tennes": 4783,
      "hoop": 4784,
      "dino": 4785,
      "whisper": 4786,
      "countryside": 4787,
      "ened": 4788,
      "print": 4789,
      "circle": 4790,
      "ony": 4791,
      "moped": 4792,
      "falling": 4793,
      "political": 4794,
      "grumpy": 4795,
      "appare": 4796,
      "5th": 4797,
      "stomach": 4798,
      "otherwise": 4799,
      "hamburgers": 4800,
      "tightly": 4801,
      "religion": 4802,
      "iry": 4803,
      "sparkly": 4804,
      "wha": 4805,
      "tennessee": 4806,
      "gymnast": 4807,
      "ial": 4808,
      "pleased": 4809,
      "flood": 4810,
      "houston": 4811,
      "Leo": 4812,
      "argue": 4813,
      "picks": 4814,
      "shark": 4815,
      "dressed": 4816,
      "ware": 4817,
      "anyways": 4818,
      "achie": 4819,
      "evil": 4820,
      "truly": 4821,
      "keys": 4822,
      "archery": 4823,
      "fits": 4824,
      "nods": 4825,
      "sugg": 4826,
      "programmer": 4827,
      "chest": 4828,
      "hose": 4829,
      "anxious": 4830,
      "raw": 4831,
      "mater": 4832,
      "omy": 4833,
      "aside": 4834,
      "stops": 4835,
      "skittles": 4836,
      "meado": 4837,
      "TV": 4838,
      "zon": 4839,
      "rode": 4840,
      "apparently": 4841,
      "creepy": 4842,
      "lame": 4843,
      "difference": 4844,
      "airplanes": 4845,
      "exotic": 4846,
      "Alice": 4847,
      "Johnny": 4848,
      "map": 4849,
      "var": 4850,
      "hopping": 4851,
      "avail": 4852,
      "dut": 4853,
      "weights": 4854,
      "members": 4855,
      "butterflies": 4856,
      "scot": 4857,
      "diamond": 4858,
      "literally": 4859,
      "atl": 4860,
      "angeles": 4861,
      "saus": 4862,
      "edge": 4863,
      "dairy": 4864,
      "memories": 4865,
      "panda": 4866,
      "tofu": 4867,
      "artistic": 4868,
      "penny": 4869,
      "available": 4870,
      "gged": 4871,
      "mission": 4872,
      "awake": 4873,
      "skydiving": 4874,
      "intelligent": 4875,
      "saf": 4876,
      "professor": 4877,
      "Today": 4878,
      "ingred": 4879,
      "cleaned": 4880,
      "steaks": 4881,
      "hall": 4882,
      "disg": 4883,
      "washer": 4884,
      "thus": 4885,
      "22": 4886,
      "martial": 4887,
      "hectic": 4888,
      "loll": 4889,
      "awww": 4890,
      "cials": 4891,
      "conven": 4892,
      "regre": 4893,
      "soldier": 4894,
      "badly": 4895,
      "mighty": 4896,
      "Fred": 4897,
      "proper": 4898,
      "mustache": 4899,
      "dinosa": 4900,
      "raising": 4901,
      "asant": 4902,
      "vania": 4903,
      "related": 4904,
      "shooting": 4905,
      "gover": 4906,
      "wers": 4907,
      "stays": 4908,
      "determined": 4909,
      "rd": 4910,
      "hardly": 4911,
      "allows": 4912,
      "volcan": 4913,
      "theat": 4914,
      "publishing": 4915,
      "autograph": 4916,
      "drama": 4917,
      "beag": 4918,
      "tap": 4919,
      "gles": 4920,
      "rout": 4921,
      "gur": 4922,
      "jess": 4923,
      "moves": 4924,
      "meadow": 4925,
      "tunes": 4926,
      "crown": 4927,
      "Give": 4928,
      "fixing": 4929,
      "diego": 4930,
      "jimmy": 4931,
      "Your": 4932,
      "offered": 4933,
      "banana": 4934,
      "Mark": 4935,
      "britney": 4936,
      "vase": 4937,
      "bil": 4938,
      "jen": 4939,
      "locked": 4940,
      "igator": 4941,
      "ges": 4942,
      "return": 4943,
      "ponies": 4944,
      "alternative": 4945,
      "inspired": 4946,
      "ffer": 4947,
      "vampire": 4948,
      "independent": 4949,
      "occasionally": 4950,
      "hated": 4951,
      "suggestion": 4952,
      "drawings": 4953,
      "suffer": 4954,
      "stable": 4955,
      "tears": 4956,
      "addicted": 4957,
      "towel": 4958,
      "rail": 4959,
      "45": 4960,
      "afr": 4961,
      "mia": 4962,
      "daycare": 4963,
      "remo": 4964,
      "pearl": 4965,
      "express": 4966,
      "attor": 4967,
      "iguanas": 4968,
      "attorney": 4969,
      "crocod": 4970,
      "salsa": 4971,
      "rapper": 4972,
      "humor": 4973,
      "jersey": 4974,
      "introdu": 4975,
      "flexible": 4976,
      "workers": 4977,
      "iling": 4978,
      "picky": 4979,
      "disappeared": 4980,
      "leans": 4981,
      "starts": 4982,
      "erable": 4983,
      "collar": 4984,
      "scout": 4985,
      "tradition": 4986,
      "nicely": 4987,
      "ppy": 4988,
      "cler": 4989,
      "thurs": 4990,
      "inos": 4991,
      "cash": 4992,
      "puer": 4993,
      "austin": 4994,
      "broadway": 4995,
      "prepar": 4996,
      "miserable": 4997,
      "3rd": 4998,
      "sett": 4999,
      "winters": 5000,
      "Me": 5001,
      "dj": 5002,
      "gf": 5003,
      "arrow": 5004,
      "following": 5005,
      "sale": 5006,
      "aqu": 5007,
      "skating": 5008,
      "pittsburgh": 5009,
      "anytime": 5010,
      "feelings": 5011,
      "toe": 5012,
      "dough": 5013,
      "aly": 5014,
      "foster": 5015,
      "jes": 5016,
      "conversation": 5017,
      "twist": 5018,
      "gender": 5019,
      "coinc": 5020,
      "harsh": 5021,
      "nowhere": 5022,
      "gathered": 5023,
      "bel": 5024,
      "relationships": 5025,
      "sighed": 5026,
      "mothers": 5027,
      "greek": 5028,
      "managed": 5029,
      "paddle": 5030,
      "jet": 5031,
      "aspir": 5032,
      "travels": 5033,
      "court": 5034,
      "iq": 5035,
      "igno": 5036,
      "given": 5037,
      "cryst": 5038,
      "finds": 5039,
      "lvania": 5040,
      "Bl": 5041,
      "grace": 5042,
      "covering": 5043,
      "bags": 5044,
      "tastes": 5045,
      "toto": 5046,
      "guessing": 5047,
      "medium": 5048,
      "accepted": 5049,
      "od": 5050,
      "torian": 5051,
      "bility": 5052,
      "memory": 5053,
      "gie": 5054,
      "process": 5055,
      "compare": 5056,
      "feeding": 5057,
      "eran": 5058,
      "orleans": 5059,
      "dorm": 5060,
      "bmw": 5061,
      "alligator": 5062,
      "chain": 5063,
      "safety": 5064,
      "turning": 5065,
      "trek": 5066,
      "fund": 5067,
      "disgusting": 5068,
      "insane": 5069,
      "hippo": 5070,
      "temper": 5071,
      "wrapped": 5072,
      "hurricanes": 5073,
      "drun": 5074,
      "hehe": 5075,
      "wiz": 5076,
      "bras": 5077,
      "198": 5078,
      "stren": 5079,
      "smaller": 5080,
      "caterpill": 5081,
      "lions": 5082,
      "rod": 5083,
      "laid": 5084,
      "orph": 5085,
      "whoa": 5086,
      "commercials": 5087,
      "puerto": 5088,
      "skipped": 5089,
      "laptop": 5090,
      "glue": 5091,
      "coats": 5092,
      "preach": 5093,
      "teller": 5094,
      "converti": 5095,
      "weap": 5096,
      "mornings": 5097,
      "noisy": 5098,
      "asth": 5099,
      "pencil": 5100,
      "puzzles": 5101,
      "urban": 5102,
      "slave": 5103,
      "ginger": 5104,
      "cattle": 5105,
      "swift": 5106,
      "gor": 5107,
      "upstate": 5108,
      "germany": 5109,
      "invited": 5110,
      "twenty": 5111,
      "puppies": 5112,
      "challen": 5113,
      "communic": 5114,
      "sylvania": 5115,
      "pennsylvania": 5116,
      "shirts": 5117,
      "clock": 5118,
      "solve": 5119,
      "dum": 5120,
      "fault": 5121,
      "spaces": 5122,
      "david": 5123,
      "casinos": 5124,
      "Bun": 5125,
      "ol": 5126,
      "mummy": 5127,
      "considered": 5128,
      "fighter": 5129,
      "square": 5130,
      "binge": 5131,
      "transl": 5132,
      "affles": 5133,
      "scri": 5134,
      "knock": 5135,
      "agent": 5136,
      "sors": 5137,
      "fields": 5138,
      "peanuts": 5139,
      "pandas": 5140,
      "waffles": 5141,
      "rown": 5142,
      "added": 5143,
      "reception": 5144,
      "oured": 5145,
      "shed": 5146,
      "farming": 5147,
      "nug": 5148,
      "interior": 5149,
      "scis": 5150,
      "depart": 5151,
      "barten": 5152,
      "bartender": 5153,
      "zebras": 5154,
      "scissors": 5155,
      "umm": 5156,
      "Ch": 5157,
      "lolli": 5158,
      "preparing": 5159,
      "avid": 5160,
      "financial": 5161,
      "intense": 5162,
      "skunk": 5163,
      "Bo": 5164,
      "dete": 5165,
      "department": 5166,
      "jeo": 5167,
      "iceland": 5168,
      "pardy": 5169,
      "jeopardy": 5170,
      "bree": 5171,
      "gut": 5172,
      "Susie": 5173,
      "wagged": 5174,
      "dic": 5175,
      "witch": 5176,
      "stub": 5177,
      "alach": 5178,
      "appalach": 5179,
      "appalachian": 5180,
      "nine": 5181,
      "bulls": 5182,
      "artists": 5183,
      "shepher": 5184,
      "bran": 5185,
      "See": 5186,
      "mut": 5187,
      "vehicle": 5188,
      "anne": 5189,
      "caterpillar": 5190,
      "valley": 5191,
      "13": 5192,
      "spots": 5193,
      "tours": 5194,
      "record": 5195,
      "asthma": 5196,
      "dealing": 5197,
      "strawberry": 5198,
      "steelers": 5199,
      "trash": 5200,
      "activity": 5201,
      "tay": 5202,
      "universe": 5203,
      "aquari": 5204,
      "chilly": 5205,
      "streng": 5206,
      "knight": 5207,
      "eze": 5208,
      "gambling": 5209,
      "clerk": 5210,
      "ann": 5211,
      "enthus": 5212,
      "enthusi": 5213,
      "attic": 5214,
      "laun": 5215,
      "tutori": 5216,
      "footsteps": 5217,
      "emer": 5218,
      "answered": 5219,
      "range": 5220,
      "iest": 5221,
      "Kitty": 5222,
      "pairs": 5223,
      "asian": 5224,
      "hah": 5225,
      "arab": 5226,
      "chir": 5227,
      "pleasant": 5228,
      "vacations": 5229,
      "changing": 5230,
      "lac": 5231,
      "sharks": 5232,
      "lawyers": 5233,
      "force": 5234,
      "clums": 5235,
      "festiv": 5236,
      "bart": 5237,
      "kevin": 5238,
      "blackjack": 5239,
      "bang": 5240,
      "aked": 5241,
      "hearing": 5242,
      "fights": 5243,
      "festivals": 5244,
      "prov": 5245,
      "rick": 5246,
      "licked": 5247,
      "connect": 5248,
      "frown": 5249,
      "contr": 5250,
      "tes": 5251,
      "tag": 5252,
      "humble": 5253,
      "sailed": 5254,
      "coincidence": 5255,
      "level": 5256,
      "thrift": 5257,
      "debt": 5258,
      "bookstore": 5259,
      "drunk": 5260,
      "gamer": 5261,
      "ific": 5262,
      "qual": 5263,
      "scares": 5264,
      "owned": 5265,
      "possibly": 5266,
      "iguana": 5267,
      "whale": 5268,
      "carrying": 5269,
      "clumsy": 5270,
      "belonged": 5271,
      "iana": 5272,
      "occup": 5273,
      "bis": 5274,
      "freak": 5275,
      "tigers": 5276,
      "breathe": 5277,
      "talks": 5278,
      "exhausted": 5279,
      "sters": 5280,
      "happier": 5281,
      "alize": 5282,
      "6th": 5283,
      "hits": 5284,
      "pour": 5285,
      "drummer": 5286,
      "playground": 5287,
      "baller": 5288,
      "bingo": 5289,
      "feathers": 5290,
      "everybody": 5291,
      "Blue": 5292,
      "refused": 5293,
      "giggled": 5294,
      "greece": 5295,
      "rilli": 5296,
      "clar": 5297,
      "gee": 5298,
      "typing": 5299,
      "stubborn": 5300,
      "quake": 5301,
      "society": 5302,
      "cere": 5303,
      "monkeys": 5304,
      "brilli": 5305,
      "adult": 5306,
      "tip": 5307,
      "pops": 5308,
      "depend": 5309,
      "tually": 5310,
      "ingredients": 5311,
      "medal": 5312,
      "gamble": 5313,
      "onion": 5314,
      "roit": 5315,
      "fallon": 5316,
      "detroit": 5317,
      "itself": 5318,
      "blessed": 5319,
      "vey": 5320,
      "anny": 5321,
      "carbs": 5322,
      "majoring": 5323,
      "chihuahua": 5324,
      "africa": 5325,
      "orphan": 5326,
      "ury": 5327,
      "pipe": 5328,
      "yd": 5329,
      "stamp": 5330,
      "written": 5331,
      "snuggl": 5332,
      "rescu": 5333,
      "arizon": 5334,
      "arizona": 5335,
      "lifeguard": 5336,
      "exercising": 5337,
      "bottom": 5338,
      "tied": 5339,
      "typical": 5340,
      "shepard": 5341,
      "waste": 5342,
      "aliens": 5343,
      "bour": 5344,
      "antique": 5345,
      "watches": 5346,
      "provide": 5347,
      "yay": 5348,
      "lightning": 5349,
      "weekly": 5350,
      "mashed": 5351,
      "holds": 5352,
      "organize": 5353,
      "sue": 5354,
      "spilled": 5355,
      "astron": 5356,
      "prison": 5357,
      "foc": 5358,
      "honor": 5359,
      "flip": 5360,
      "parking": 5361,
      "improve": 5362,
      "copper": 5363,
      "uten": 5364,
      "windows": 5365,
      "freedom": 5366,
      "spoke": 5367,
      "unicorn": 5368,
      "chubby": 5369,
      "fellow": 5370,
      "minnes": 5371,
      "nike": 5372,
      "scrub": 5373,
      "vit": 5374,
      "opinion": 5375,
      "nod": 5376,
      "crush": 5377,
      "gluten": 5378,
      "stronger": 5379,
      "challeng": 5380,
      "agram": 5381,
      "suburbs": 5382,
      "instagram": 5383,
      "duty": 5384,
      "struggle": 5385,
      "stuffed": 5386,
      "brow": 5387,
      "relaxed": 5388,
      "regret": 5389,
      "goat": 5390,
      "scene": 5391,
      "hurry": 5392,
      "equi": 5393,
      "strength": 5394,
      "tricks": 5395,
      "terrified": 5396,
      "graduating": 5397,
      "nail": 5398,
      "remain": 5399,
      "bead": 5400,
      "slipped": 5401,
      "fond": 5402,
      "peoples": 5403,
      "Eventually": 5404,
      "Mar": 5405,
      "max": 5406,
      "boxer": 5407,
      "splashed": 5408,
      "drugs": 5409,
      "skir": 5410,
      "flute": 5411,
      "laughs": 5412,
      "bots": 5413,
      "breaking": 5414,
      "casts": 5415,
      "ceed": 5416,
      "separ": 5417,
      "skydive": 5418,
      "alcoholic": 5419,
      "knees": 5420,
      "gang": 5421,
      "tools": 5422,
      "march": 5423,
      "barbie": 5424,
      "pepperoni": 5425,
      "pretending": 5426,
      "zes": 5427,
      "kindness": 5428,
      "courses": 5429,
      "mysteries": 5430,
      "oreo": 5431,
      "affect": 5432,
      "bly": 5433,
      "dizzy": 5434,
      "mini": 5435,
      "ques": 5436,
      "Rose": 5437,
      "enders": 5438,
      "served": 5439,
      "patch": 5440,
      "brilliant": 5441,
      "thy": 5442,
      "seeds": 5443,
      "nment": 5444,
      "government": 5445,
      "ero": 5446,
      "dolphin": 5447,
      "ald": 5448,
      "louisiana": 5449,
      "figured": 5450,
      "thumb": 5451,
      "receptionist": 5452,
      "reliable": 5453,
      "destro": 5454,
      "niece": 5455,
      "vari": 5456,
      "vada": 5457,
      "nevada": 5458,
      "toronto": 5459,
      "letting": 5460,
      "headache": 5461,
      "acy": 5462,
      "ai": 5463,
      "chewing": 5464,
      "washed": 5465,
      "genres": 5466,
      "softball": 5467,
      "maker": 5468,
      "cities": 5469,
      "sponge": 5470,
      "environmental": 5471,
      "succeed": 5472,
      "charity": 5473,
      "reminded": 5474,
      "ambit": 5475,
      "foolish": 5476,
      "herbs": 5477,
      "orns": 5478,
      "ignor": 5479,
      "barking": 5480,
      "attending": 5481,
      "patterns": 5482,
      "cient": 5483,
      "reads": 5484,
      "Bobby": 5485,
      "valu": 5486,
      "wagon": 5487,
      "peach": 5488,
      "loudly": 5489,
      "mushrooms": 5490,
      "editing": 5491,
      "greatest": 5492,
      "hence": 5493,
      "healthier": 5494,
      "heaven": 5495,
      "pirate": 5496,
      "minnesota": 5497,
      "umbled": 5498,
      "ella": 5499,
      "cane": 5500,
      "text": 5501,
      "cran": 5502,
      "cob": 5503,
      "wolves": 5504,
      "realised": 5505,
      "slept": 5506,
      "cereal": 5507,
      "ancient": 5508,
      "weigh": 5509,
      "modest": 5510,
      "sites": 5511,
      "rugby": 5512,
      "lakes": 5513,
      "bounce": 5514,
      "uming": 5515,
      "docu": 5516,
      "lumber": 5517,
      "porch": 5518,
      "coo": 5519,
      "alpac": 5520,
      "shut": 5521,
      "27": 5522,
      "message": 5523,
      "suits": 5524,
      "robots": 5525,
      "sounded": 5526,
      "sneak": 5527,
      "costume": 5528,
      "former": 5529,
      "pant": 5530,
      "repe": 5531,
      "bey": 5532,
      "uniform": 5533,
      "crawled": 5534,
      "nuggets": 5535,
      "catho": 5536,
      "cheeseburgers": 5537,
      "tomato": 5538,
      "specific": 5539,
      "podcasts": 5540,
      "customer": 5541,
      "catholic": 5542,
      "accompl": 5543,
      "trunk": 5544,
      "jacket": 5545,
      "surrounded": 5546,
      "ffin": 5547,
      "thirsty": 5548,
      "strangers": 5549,
      "omas": 5550,
      "balloons": 5551,
      "challenge": 5552,
      "Ella": 5553,
      "Well": 5554,
      "thomas": 5555,
      "joe": 5556,
      "deb": 5557,
      "Mrs": 5558,
      "focused": 5559,
      "tren": 5560,
      "cult": 5561,
      "discovery": 5562,
      "crit": 5563,
      "Letâ": 5564,
      "mcqueen": 5565,
      "ibm": 5566,
      "jacob": 5567,
      "swimmer": 5568,
      "Whe": 5569,
      "ctions": 5570,
      "ribs": 5571,
      "image": 5572,
      "branches": 5573,
      "shocked": 5574,
      "graders": 5575,
      "itude": 5576,
      "quest": 5577,
      "techn": 5578,
      "iso": 5579,
      "obviously": 5580,
      "options": 5581,
      "End": 5582,
      "thous": 5583,
      "thousand": 5584,
      "ius": 5585,
      "opening": 5586,
      "minist": 5587,
      "bachel": 5588,
      "throwing": 5589,
      "moments": 5590,
      "passions": 5591,
      "brunch": 5592,
      "dave": 5593,
      "cosplay": 5594,
      "stove": 5595,
      "tray": 5596,
      "louder": 5597,
      "ordinary": 5598,
      "gir": 5599,
      "understanding": 5600,
      "menu": 5601,
      "lizards": 5602,
      "jerry": 5603,
      "jeep": 5604,
      "orter": 5605,
      "brace": 5606,
      "shade": 5607,
      "struggling": 5608,
      "jesus": 5609,
      "sore": 5610,
      "brat": 5611,
      "buttons": 5612,
      "inju": 5613,
      "sest": 5614,
      "closest": 5615,
      "snowboarding": 5616,
      "activist": 5617,
      "electronic": 5618,
      "alex": 5619,
      "dates": 5620,
      "sock": 5621,
      "pretz": 5622,
      "scotch": 5623,
      "pumpkins": 5624,
      "darn": 5625,
      "weld": 5626,
      "trap": 5627,
      "theatre": 5628,
      "meow": 5629,
      "Pete": 5630,
      "mama": 5631,
      "anni": 5632,
      "exist": 5633,
      "versary": 5634,
      "breeze": 5635,
      "anniversary": 5636,
      "groceries": 5637,
      "handy": 5638,
      "basement": 5639,
      "spun": 5640,
      "cope": 5641,
      "chick": 5642,
      "cau": 5643,
      "homemade": 5644,
      "handed": 5645,
      "pork": 5646,
      "heroes": 5647,
      "blin": 5648,
      "maryland": 5649,
      "nancy": 5650,
      "projects": 5651,
      "mobi": 5652,
      "bark": 5653,
      "toast": 5654,
      "wander": 5655,
      "thumbs": 5656,
      "tival": 5657,
      "proof": 5658,
      "counter": 5659,
      "pense": 5660,
      "horn": 5661,
      "suspense": 5662,
      "nash": 5663,
      "forth": 5664,
      "nashville": 5665,
      "gress": 5666,
      "dedic": 5667,
      "trump": 5668,
      "salary": 5669,
      "festival": 5670,
      "including": 5671,
      "architect": 5672,
      "tutorials": 5673,
      "cheers": 5674,
      "nephew": 5675,
      "youth": 5676,
      "laundry": 5677,
      "price": 5678,
      "ohh": 5679,
      "calming": 5680,
      "families": 5681,
      "apologize": 5682,
      "aren": 5683,
      "foodie": 5684,
      "attack": 5685,
      "champion": 5686,
      "further": 5687,
      "condition": 5688,
      "plastic": 5689,
      "detective": 5690,
      "Mandy": 5691,
      "Ow": 5692,
      "rome": 5693,
      "chees": 5694,
      "cultures": 5695,
      "fc": 5696,
      "mr": 5697,
      "umba": 5698,
      "iers": 5699,
      "doo": 5700,
      "eggplant": 5701,
      "haircut": 5702,
      "imaginary": 5703,
      "beside": 5704,
      "gloomy": 5705,
      "tick": 5706,
      "logical": 5707,
      "cheetos": 5708,
      "limited": 5709,
      "aid": 5710,
      "tors": 5711,
      "mild": 5712,
      "ician": 5713,
      "choices": 5714,
      "flavors": 5715,
      "swed": 5716,
      "ironic": 5717,
      "veteran": 5718,
      "gathering": 5719,
      "pointing": 5720,
      "jogging": 5721,
      "balan": 5722,
      "gri": 5723,
      "bossy": 5724,
      "distracted": 5725,
      "goss": 5726,
      "colourful": 5727,
      "clap": 5728,
      "president": 5729,
      "achieve": 5730,
      "Brown": 5731,
      "hael": 5732,
      "disappoint": 5733,
      "reco": 5734,
      "adv": 5735,
      "zebra": 5736,
      "circles": 5737,
      "cycles": 5738,
      "cooks": 5739,
      "greetings": 5740,
      "bump": 5741,
      "arc": 5742,
      "painful": 5743,
      "noble": 5744,
      "bitter": 5745,
      "ola": 5746,
      "pecan": 5747,
      "partying": 5748,
      "hearse": 5749,
      "nearly": 5750,
      "dall": 5751,
      "argu": 5752,
      "capes": 5753,
      "genius": 5754,
      "denver": 5755,
      "variety": 5756,
      "dallas": 5757,
      "cub": 5758,
      "leash": 5759,
      "fired": 5760,
      "generally": 5761,
      "oak": 5762,
      "ughter": 5763,
      "setting": 5764,
      "hs": 5765,
      "safely": 5766,
      "freckles": 5767,
      "hoe": 5768,
      "Ellie": 5769,
      "rhy": 5770,
      "tose": 5771,
      "preacher": 5772,
      "lactose": 5773,
      "olive": 5774,
      "yarn": 5775,
      "distant": 5776,
      "dunge": 5777,
      "asia": 5778,
      "technic": 5779,
      "taxi": 5780,
      "technician": 5781,
      "overweight": 5782,
      "buildings": 5783,
      "irish": 5784,
      "addiction": 5785,
      "thunder": 5786,
      "counted": 5787,
      "sausage": 5788,
      "ballerina": 5789,
      "flat": 5790,
      "ints": 5791,
      "equipment": 5792,
      "mba": 5793,
      "aster": 5794,
      "retiring": 5795,
      "matters": 5796,
      "amount": 5797,
      "praying": 5798,
      "?\".": 5799,
      "killing": 5800,
      "cally": 5801,
      "robe": 5802,
      "classroom": 5803,
      "cous": 5804,
      "classics": 5805,
      "mustangs": 5806,
      "phar": 5807,
      "settled": 5808,
      "behave": 5809,
      "parag": 5810,
      "corpor": 5811,
      "tup": 5812,
      "raced": 5813,
      "tupac": 5814,
      "Bella": 5815,
      "frosting": 5816,
      "admit": 5817,
      "motorcycles": 5818,
      "accent": 5819,
      "haz": 5820,
      "utter": 5821,
      "continue": 5822,
      "caffe": 5823,
      "waking": 5824,
      "wiped": 5825,
      "hippie": 5826,
      "aire": 5827,
      "eagle": 5828,
      "77": 5829,
      "homeschool": 5830,
      "discus": 5831,
      "snor": 5832,
      "celebrated": 5833,
      "laser": 5834,
      "hills": 5835,
      "harley": 5836,
      "purpose": 5837,
      "crocodile": 5838,
      "skinny": 5839,
      "decorating": 5840,
      "stan": 5841,
      "playful": 5842,
      "swan": 5843,
      "robert": 5844,
      "mel": 5845,
      "site": 5846,
      "loose": 5847,
      "lid": 5848,
      "grees": 5849,
      "relief": 5850,
      "hut": 5851,
      "costumes": 5852,
      "chor": 5853,
      "vent": 5854,
      "obed": 5855,
      "mous": 5856,
      "refer": 5857,
      "fred": 5858,
      "gile": 5859,
      "taylor": 5860,
      "inder": 5861,
      "ggers": 5862,
      "Will": 5863,
      "reject": 5864,
      "sigh": 5865,
      "Fin": 5866,
      "wrap": 5867,
      "doesn": 5868,
      "sesame": 5869,
      "vitam": 5870,
      "tummy": 5871,
      "creed": 5872,
      "floyd": 5873,
      "touring": 5874,
      "valuable": 5875,
      "webs": 5876,
      "necess": 5877,
      "muscles": 5878,
      "challenging": 5879,
      "pist": 5880,
      "recycling": 5881,
      "bones": 5882,
      "plain": 5883,
      "combo": 5884,
      "commercial": 5885,
      "fragile": 5886,
      "encoura": 5887,
      "acked": 5888,
      "larp": 5889,
      "atlanta": 5890,
      "admired": 5891,
      "pharmac": 5892,
      "episo": 5893,
      "stew": 5894,
      "mole": 5895,
      "fet": 5896,
      "sink": 5897,
      "Nemo": 5898,
      "attitude": 5899,
      "biographies": 5900,
      "races": 5901,
      "aroo": 5902,
      "paramed": 5903,
      "cups": 5904,
      "frightened": 5905,
      "nold": 5906,
      "highly": 5907,
      "melon": 5908,
      "ays": 5909,
      "beas": 5910,
      "tx": 5911,
      "director": 5912,
      "meats": 5913,
      "figures": 5914,
      "split": 5915,
      "patience": 5916,
      "mentioned": 5917,
      "Ducky": 5918,
      "icking": 5919,
      "ladies": 5920,
      "convertible": 5921,
      "identical": 5922,
      "skip": 5923,
      "confident": 5924,
      "bella": 5925,
      "particip": 5926,
      "skirt": 5927,
      "eagles": 5928,
      "ravens": 5929,
      "stain": 5930,
      "lind": 5931,
      "onions": 5932,
      "fountain": 5933,
      "jason": 5934,
      "dober": 5935,
      "drake": 5936,
      "pedia": 5937,
      "costco": 5938,
      "pretzels": 5939,
      "eve": 5940,
      "defense": 5941,
      "pole": 5942,
      "snif": 5943,
      "assu": 5944,
      "suggested": 5945,
      "explored": 5946,
      "value": 5947,
      "caffeine": 5948,
      "faith": 5949,
      "lucy": 5950,
      "asparag": 5951,
      "within": 5952,
      "crocheting": 5953,
      "asparagus": 5954,
      "begin": 5955,
      "ala": 5956,
      "approve": 5957,
      "warmer": 5958,
      "sin": 5959,
      "background": 5960,
      "thursday": 5961,
      "receive": 5962,
      "dependable": 5963,
      "sunflower": 5964,
      "sax": 5965,
      "airplane": 5966,
      "autographs": 5967,
      "civil": 5968,
      "oooh": 5969,
      "willing": 5970,
      "polish": 5971,
      "employe": 5972,
      "styles": 5973,
      "poured": 5974,
      "dove": 5975,
      "stare": 5976,
      "tear": 5977,
      "fus": 5978,
      "cone": 5979,
      "itted": 5980,
      "nosy": 5981,
      "poe": 5982,
      "monday": 5983,
      "satis": 5984,
      "slack": 5985,
      "piercings": 5986,
      "wallet": 5987,
      "delicate": 5988,
      "melt": 5989,
      "ptain": 5990,
      "pudding": 5991,
      "stretch": 5992,
      "carb": 5993,
      "husk": 5994,
      "rapids": 5995,
      "birdie": 5996,
      "pons": 5997,
      "analy": 5998,
      "coworker": 5999,
      "veland": 6000,
      "cleveland": 6001,
      "issue": 6002,
      "crayon": 6003,
      "dungeons": 6004,
      "helmet": 6005,
      "clip": 6006,
      "arians": 6007,
      "nicer": 6008,
      "swell": 6009,
      "asons": 6010,
      "reasons": 6011,
      "ults": 6012,
      "bble": 6013,
      "border": 6014,
      "dollars": 6015,
      "rit": 6016,
      "closely": 6017,
      "hammer": 6018,
      "coupons": 6019,
      "filling": 6020,
      "cheerleader": 6021,
      "welf": 6022,
      "Bobo": 6023,
      "resist": 6024,
      "vermont": 6025,
      "afterwards": 6026,
      "Ann": 6027,
      "dani": 6028,
      "flir": 6029,
      "olympics": 6030,
      "parade": 6031,
      "dinosaur": 6032,
      "covers": 6033,
      "grandfather": 6034,
      "imagination": 6035,
      "cuz": 6036,
      "realize": 6037,
      "cabinet": 6038,
      "utah": 6039,
      "pos": 6040,
      "battery": 6041,
      "ung": 6042,
      "unknown": 6043,
      "umbre": 6044,
      "knot": 6045,
      "notes": 6046,
      "gymnastics": 6047,
      "craving": 6048,
      "sche": 6049,
      "zip": 6050,
      "arry": 6051,
      "weakness": 6052,
      "haw": 6053,
      "reck": 6054,
      "owning": 6055,
      "patients": 6056,
      "bushes": 6057,
      "tires": 6058,
      "emotion": 6059,
      "obedient": 6060,
      "gag": 6061,
      "kj": 6062,
      "compli": 6063,
      "blankets": 6064,
      "robotics": 6065,
      "unwind": 6066,
      "angaroo": 6067,
      "cheerful": 6068,
      "jama": 6069,
      "humans": 6070,
      "license": 6071,
      "esca": 6072,
      "latest": 6073,
      "biscu": 6074,
      "sofa": 6075,
      "aware": 6076,
      "rn": 6077,
      "paul": 6078,
      "pottery": 6079,
      "grading": 6080,
      "vana": 6081,
      "erts": 6082,
      "desserts": 6083,
      "ranger": 6084,
      "disagree": 6085,
      "dresser": 6086,
      "ka": 6087,
      "gear": 6088,
      "pengu": 6089,
      "barber": 6090,
      "quality": 6091,
      "snorke": 6092,
      "kangaroo": 6093,
      "hol": 6094,
      "wizard": 6095,
      "Un": 6096,
      "jum": 6097,
      "shelters": 6098,
      "lexus": 6099,
      "task": 6100,
      "worlds": 6101,
      "macar": 6102,
      "ext": 6103,
      "option": 6104,
      "Next": 6105,
      "alie": 6106,
      "somewhat": 6107,
      "clin": 6108,
      "cauli": 6109,
      "ration": 6110,
      "customers": 6111,
      "locally": 6112,
      "ading": 6113,
      "surgeon": 6114,
      "michael": 6115,
      "topic": 6116,
      "enor": 6117,
      "rule": 6118,
      "imed": 6119,
      "mare": 6120,
      "claimed": 6121,
      "enormous": 6122,
      "shellfish": 6123,
      "batt": 6124,
      "muffin": 6125,
      "palm": 6126,
      "Grandpa": 6127,
      "wayne": 6128,
      "yelling": 6129,
      "Sophi": 6130,
      "mediately": 6131,
      "inher": 6132,
      "fier": 6133,
      "hoo": 6134,
      "Li": 6135,
      "smith": 6136,
      "tease": 6137,
      "players": 6138,
      "goose": 6139,
      "captain": 6140,
      "vote": 6141,
      "seal": 6142,
      "barbecue": 6143,
      "veg": 6144,
      "exclaimed": 6145,
      "network": 6146,
      "Tweety": 6147,
      "Kim": 6148,
      "cuddle": 6149,
      "central": 6150,
      "annoyed": 6151,
      "dumb": 6152,
      "chores": 6153,
      "commit": 6154,
      "pitch": 6155,
      "Joey": 6156,
      "various": 6157,
      "meter": 6158,
      "thoughtful": 6159,
      "produce": 6160,
      "fierce": 6161,
      "Ha": 6162,
      "courage": 6163,
      "gossip": 6164,
      "cauliflower": 6165,
      "orang": 6166,
      "spongebob": 6167,
      "bachelors": 6168,
      "proudly": 6169,
      "grassho": 6170,
      "achio": 6171,
      "harmless": 6172,
      "pistachio": 6173,
      "ease": 6174,
      "drones": 6175,
      "alpacas": 6176,
      "adi": 6177,
      "attended": 6178,
      "trophy": 6179,
      "nurses": 6180,
      "btw": 6181,
      "ufc": 6182,
      "hendri": 6183,
      "psychologist": 6184,
      "entertainment": 6185,
      "hendrix": 6186,
      "lest": 6187,
      "mun": 6188,
      "mos": 6189,
      "envious": 6190,
      "ases": 6191,
      "cale": 6192,
      "link": 6193,
      "salmon": 6194,
      "scuba": 6195,
      "suggestions": 6196,
      "gem": 6197,
      "poem": 6198,
      "trophies": 6199,
      "quarter": 6200,
      "Whenever": 6201,
      "cd": 6202,
      "abby": 6203,
      "ured": 6204,
      "checked": 6205,
      "charming": 6206,
      "volcano": 6207,
      "bloom": 6208,
      "supper": 6209,
      "powder": 6210,
      "bom": 6211,
      "Would": 6212,
      "econ": 6213,
      "stumbled": 6214,
      "outfit": 6215,
      "collected": 6216,
      "bene": 6217,
      "labrad": 6218,
      "ticket": 6219,
      "rooms": 6220,
      "ution": 6221,
      "teams": 6222,
      "railroad": 6223,
      "29": 6224,
      "goalie": 6225,
      "iring": 6226,
      "statement": 6227,
      "spinning": 6228,
      "ym": 6229,
      "friendship": 6230,
      "version": 6231,
      "hells": 6232,
      "gila": 6233,
      "gni": 6234,
      "cello": 6235,
      "owen": 6236,
      "edic": 6237,
      "etah": 6238,
      "cheetah": 6239,
      "tide": 6240,
      "fireman": 6241,
      "pom": 6242,
      "crystal": 6243,
      "envelo": 6244,
      "authors": 6245,
      "zom": 6246,
      "brightly": 6247,
      "confidence": 6248,
      "huskies": 6249,
      "somebody": 6250,
      "gage": 6251,
      "include": 6252,
      "paramedic": 6253,
      "awk": 6254,
      "paints": 6255,
      "ired": 6256,
      "pinea": 6257,
      "pushing": 6258,
      "oranges": 6259,
      "anat": 6260,
      "arnold": 6261,
      "sears": 6262,
      "excitedly": 6263,
      "sweden": 6264,
      "spice": 6265,
      "enjoys": 6266,
      "demanding": 6267,
      "clinic": 6268,
      "leader": 6269,
      "kele": 6270,
      "crawl": 6271,
      "Lola": 6272,
      "consci": 6273,
      "tones": 6274,
      "conscious": 6275,
      "65": 6276,
      "macaroni": 6277,
      "earrings": 6278,
      "responsibility": 6279,
      "waiter": 6280,
      "float": 6281,
      "prize": 6282,
      "companion": 6283,
      "tongue": 6284,
      "despise": 6285,
      "translator": 6286,
      "idents": 6287,
      "mmmm": 6288,
      "jail": 6289,
      "shall": 6290,
      "amel": 6291,
      "shepherd": 6292,
      "nir": 6293,
      "blowing": 6294,
      "inet": 6295,
      "delivery": 6296,
      "treasures": 6297,
      "poems": 6298,
      "nam": 6299,
      "editor": 6300,
      "epile": 6301,
      "nirvana": 6302,
      "liking": 6303,
      "sheet": 6304,
      "crimin": 6305,
      "millionaire": 6306,
      "precious": 6307,
      "delighted": 6308,
      "ette": 6309,
      "whether": 6310,
      "files": 6311,
      "Bye": 6312,
      "caramel": 6313,
      "istic": 6314,
      "cheaper": 6315,
      "keleton": 6316,
      "dc": 6317,
      "rico": 6318,
      "lepre": 6319,
      "chaun": 6320,
      "skateboarding": 6321,
      "jamaica": 6322,
      "leprechaun": 6323,
      "ief": 6324,
      "Ge": 6325,
      "ades": 6326,
      "windy": 6327,
      "chairs": 6328,
      "alg": 6329,
      "shone": 6330,
      "opens": 6331,
      "hazel": 6332,
      "puff": 6333,
      "educated": 6334,
      "terrier": 6335,
      "recovering": 6336,
      "gall": 6337,
      "ninten": 6338,
      "merced": 6339,
      "nintendo": 6340,
      "mercedes": 6341,
      "warned": 6342,
      "golfing": 6343,
      "ening": 6344,
      "dit": 6345,
      "kings": 6346,
      "Dave": 6347,
      "perfectly": 6348,
      "rollerbl": 6349,
      "pots": 6350,
      "pale": 6351,
      "graceful": 6352,
      "recogni": 6353,
      "jean": 6354,
      "ariel": 6355,
      "points": 6356,
      "chal": 6357,
      "immediately": 6358,
      "rains": 6359,
      "panic": 6360,
      "staring": 6361,
      "hired": 6362,
      "imagined": 6363,
      "syrup": 6364,
      "soar": 6365,
      "standards": 6366,
      "double": 6367,
      "gosp": 6368,
      "management": 6369,
      "particularly": 6370,
      "mortal": 6371,
      "aspiring": 6372,
      "gospel": 6373,
      "wishes": 6374,
      "episode": 6375,
      "boating": 6376,
      "dece": 6377,
      "lettu": 6378,
      "jeans": 6379,
      "ultimate": 6380,
      "lettuce": 6381,
      "ffa": 6382,
      "specialty": 6383,
      "whispered": 6384,
      "skeleton": 6385,
      "lime": 6386,
      "icans": 6387,
      "buffa": 6388,
      "groups": 6389,
      "diabetes": 6390,
      "beastie": 6391,
      "doberman": 6392,
      "anatomy": 6393,
      "buffalo": 6394,
      "unhappy": 6395,
      "joking": 6396,
      "compared": 6397,
      "astronaut": 6398,
      "hitting": 6399,
      "minim": 6400,
      "gour": 6401,
      "hairy": 6402,
      "xbox": 6403,
      "abig": 6404,
      "traum": 6405,
      "offs": 6406,
      "entertaining": 6407,
      "nasa": 6408,
      "abigail": 6409,
      "awkward": 6410,
      "ashes": 6411,
      "banker": 6412,
      "Paul": 6413,
      "ulting": 6414,
      "fis": 6415,
      "jas": 6416,
      "inse": 6417,
      "buff": 6418,
      "formation": 6419,
      "coordin": 6420,
      "akeet": 6421,
      "whos": 6422,
      "parakeet": 6423,
      "cocoa": 6424,
      "ew": 6425,
      "file": 6426,
      "rushed": 6427,
      "teenag": 6428,
      "killer": 6429,
      "vator": 6430,
      "ankle": 6431,
      "tunnel": 6432,
      "godfather": 6433,
      "martin": 6434,
      "occupation": 6435,
      "assume": 6436,
      "epilepsy": 6437,
      "shaking": 6438,
      "beak": 6439,
      "starving": 6440,
      "liber": 6441,
      "planner": 6442,
      "brewer": 6443,
      "letters": 6444,
      "cliff": 6445,
      "burned": 6446,
      "tran": 6447,
      "personality": 6448,
      "graduation": 6449,
      "hbu": 6450,
      "subtit": 6451,
      "hamburger": 6452,
      "autism": 6453,
      "ymca": 6454,
      "carpen": 6455,
      "appear": 6456,
      "dolphins": 6457,
      "carpenter": 6458,
      "scat": 6459,
      "wheels": 6460,
      "flashlight": 6461,
      "wears": 6462,
      "package": 6463,
      "score": 6464,
      "lip": 6465,
      "tale": 6466,
      "Alex": 6467,
      "bff": 6468,
      "dama": 6469,
      "acade": 6470,
      "grunge": 6471,
      "everest": 6472,
      "damage": 6473,
      "Pat": 6474,
      "Mike": 6475,
      "nightmare": 6476,
      "seasons": 6477,
      "gifts": 6478,
      "rainbows": 6479,
      "toddler": 6480,
      "George": 6481,
      "allie": 6482,
      "sav": 6483,
      "karma": 6484,
      "statue": 6485,
      "weapons": 6486,
      "ledge": 6487,
      "titan": 6488,
      "grapes": 6489,
      "bay": 6490,
      "rag": 6491,
      "actual": 6492,
      "speci": 6493,
      "mermaid": 6494,
      "shadow": 6495,
      "1st": 6496,
      "practiced": 6497,
      "70": 6498,
      "madd": 6499,
      "affairs": 6500,
      "triath": 6501,
      "rays": 6502,
      "ethnic": 6503,
      "rubbed": 6504,
      "backpack": 6505,
      "carni": 6506,
      "donut": 6507,
      "ario": 6508,
      "mug": 6509,
      "barrel": 6510,
      "ati": 6511,
      "replace": 6512,
      "recycle": 6513,
      "fought": 6514,
      "argent": 6515,
      "jolly": 6516,
      "naps": 6517,
      "empire": 6518,
      "malt": 6519,
      "Toby": 6520,
      "encyclopedia": 6521,
      "gourmet": 6522,
      "wherever": 6523,
      "website": 6524,
      "hopes": 6525,
      "iles": 6526,
      "perio": 6527,
      "symph": 6528,
      "cric": 6529,
      "bian": 6530,
      "chemist": 6531,
      "neighbour": 6532,
      "umbrella": 6533,
      "austen": 6534,
      "gigs": 6535,
      "lindsey": 6536,
      "jumps": 6537,
      "affe": 6538,
      "persist": 6539,
      "celebration": 6540,
      "daydream": 6541,
      "trout": 6542,
      "oopy": 6543,
      "palace": 6544,
      "combination": 6545,
      "ize": 6546,
      "juggl": 6547,
      "blah": 6548,
      "flour": 6549,
      "destination": 6550,
      "taxes": 6551,
      "unicorns": 6552,
      "kiddos": 6553,
      "freshman": 6554,
      "fuel": 6555,
      "employ": 6556,
      "vegans": 6557,
      "een": 6558,
      "sudden": 6559,
      "enna": 6560,
      "shades": 6561,
      "bubblegum": 6562,
      "ories": 6563,
      "travelled": 6564,
      "prepared": 6565,
      "mermaids": 6566,
      "chalk": 6567,
      "charge": 6568,
      "shortest": 6569,
      "notebook": 6570,
      "encourage": 6571,
      "kyo": 6572,
      "erry": 6573,
      "muggers": 6574,
      "mobile": 6575,
      "remote": 6576,
      "client": 6577,
      "deserve": 6578,
      "yaw": 6579,
      "mailbox": 6580,
      "flight": 6581,
      "nies": 6582,
      "records": 6583,
      "surfer": 6584,
      "levine": 6585,
      "alger": 6586,
      "redhead": 6587,
      "!\".": 6588,
      "greedy": 6589,
      "publisher": 6590,
      "british": 6591,
      "cheesy": 6592,
      "lovers": 6593,
      "wire": 6594,
      "pple": 6595,
      "laughter": 6596,
      "mature": 6597,
      "jug": 6598,
      "cherries": 6599,
      "bitcoin": 6600,
      "hummus": 6601,
      "pless": 6602,
      "nickname": 6603,
      "resto": 6604,
      "dod": 6605,
      "fart": 6606,
      "envelope": 6607,
      "towers": 6608,
      "magnet": 6609,
      "slice": 6610,
      "collie": 6611,
      "childrens": 6612,
      "ferrell": 6613,
      "rp": 6614,
      "elevator": 6615,
      "landscapes": 6616,
      "opportunity": 6617,
      "peeked": 6618,
      "pha": 6619,
      "fted": 6620,
      "eclip": 6621,
      "ox": 6622,
      "stack": 6623,
      "careless": 6624,
      "ignorant": 6625,
      "2nd": 6626,
      "decis": 6627,
      "consulting": 6628,
      "traditional": 6629,
      "welfare": 6630,
      "csi": 6631,
      "vs": 6632,
      "istics": 6633,
      "holes": 6634,
      "stared": 6635,
      "impal": 6636,
      "hurting": 6637,
      "distur": 6638,
      "Andy": 6639,
      "candle": 6640,
      "beetle": 6641,
      "airport": 6642,
      "jani": 6643,
      "pursue": 6644,
      "mint": 6645,
      "indoor": 6646,
      "areas": 6647,
      "core": 6648,
      "deling": 6649,
      "downtown": 6650,
      "contest": 6651,
      "geology": 6652,
      "crowd": 6653,
      "copperfield": 6654,
      "needle": 6655,
      "firefighter": 6656,
      "nicke": 6657,
      "Polly": 6658,
      "icles": 6659,
      "access": 6660,
      "raz": 6661,
      "secretly": 6662,
      "introduced": 6663,
      "pharmacist": 6664,
      "gaga": 6665,
      "propo": 6666,
      "dais": 6667,
      "10th": 6668,
      "filthy": 6669,
      "ances": 6670,
      "cord": 6671,
      "squash": 6672,
      "breast": 6673,
      "slides": 6674,
      "rats": 6675,
      "wool": 6676,
      "atic": 6677,
      "boom": 6678,
      "ckets": 6679,
      "acking": 6680,
      "arrive": 6681,
      "gorilla": 6682,
      "mount": 6683,
      "orio": 6684,
      "administ": 6685,
      "crossed": 6686,
      "spond": 6687,
      "information": 6688,
      "writes": 6689,
      "meditate": 6690,
      "heli": 6691,
      "sis": 6692,
      "scale": 6693,
      "herb": 6694,
      "carpet": 6695,
      "sings": 6696,
      "simp": 6697,
      "prints": 6698,
      "hometown": 6699,
      "birthdays": 6700,
      "fortunately": 6701,
      "escaped": 6702,
      "cind": 6703,
      "atra": 6704,
      "knowledge": 6705,
      "cares": 6706,
      "nyu": 6707,
      "chai": 6708,
      "chanel": 6709,
      "distrac": 6710,
      "scouts": 6711,
      "sinatra": 6712,
      "algeria": 6713,
      "stretched": 6714,
      "album": 6715,
      "pigeon": 6716,
      "sunsets": 6717,
      "Grace": 6718,
      "buzz": 6719,
      "theme": 6720,
      "bracelet": 6721,
      "arter": 6722,
      "paran": 6723,
      "steve": 6724,
      "jamming": 6725,
      "diabetic": 6726,
      "arcade": 6727,
      "stanford": 6728,
      "helicop": 6729,
      "boiled": 6730,
      "Bear": 6731,
      "orche": 6732,
      "fork": 6733,
      "scul": 6734,
      "dab": 6735,
      "ezed": 6736,
      "angle": 6737,
      "impatient": 6738,
      "demo": 6739,
      "droopy": 6740,
      "giggle": 6741,
      "rejects": 6742,
      "nove": 6743,
      "noah": 6744,
      "ira": 6745,
      "ramen": 6746,
      "babysitting": 6747,
      "ryan": 6748,
      "bathe": 6749,
      "gasped": 6750,
      "hers": 6751,
      "beep": 6752,
      "trails": 6753,
      "meetings": 6754,
      "bathtub": 6755,
      "tug": 6756,
      "ordered": 6757,
      "meditation": 6758,
      "soothing": 6759,
      "multiple": 6760,
      "hiring": 6761,
      "info": 6762,
      "mario": 6763,
      "turkey": 6764,
      "outdoorsy": 6765,
      "porsche": 6766,
      "1984": 6767,
      "smoothie": 6768,
      "shelves": 6769,
      "announ": 6770,
      "considering": 6771,
      "uel": 6772,
      "packages": 6773,
      "snuggled": 6774,
      "algia": 6775,
      "zumba": 6776,
      "easter": 6777,
      "lery": 6778,
      "explains": 6779,
      "typically": 6780,
      "biography": 6781,
      "sunrise": 6782,
      "bounced": 6783,
      "dug": 6784,
      "celery": 6785,
      "dining": 6786,
      "Or": 6787,
      "tam": 6788,
      "enti": 6789,
      "brick": 6790,
      "atta": 6791,
      "cum": 6792,
      "frame": 6793,
      "hist": 6794,
      "performan": 6795,
      "hp": 6796,
      "tokyo": 6797,
      "feli": 6798,
      "playlist": 6799,
      "blogs": 6800,
      "niag": 6801,
      "affected": 6802,
      "shiver": 6803,
      "daisies": 6804,
      "pyram": 6805,
      "lively": 6806,
      "admirable": 6807,
      "crane": 6808,
      "plumber": 6809,
      "aging": 6810,
      "avoca": 6811,
      "atric": 6812,
      "heros": 6813,
      "bentley": 6814,
      "pediatric": 6815,
      "titanic": 6816,
      "comfor": 6817,
      "ently": 6818,
      "helpless": 6819,
      "sells": 6820,
      "persistent": 6821,
      "cs": 6822,
      "œWhat": 6823,
      "musicals": 6824,
      "drawer": 6825,
      "oe": 6826,
      "Sophie": 6827,
      "clue": 6828,
      "appli": 6829,
      "stickers": 6830,
      "breeds": 6831,
      "depression": 6832,
      "orioles": 6833,
      "fts": 6834,
      "code": 6835,
      "ours": 6836,
      "celebrity": 6837,
      "involve": 6838,
      "expected": 6839,
      "expert": 6840,
      "dar": 6841,
      "inven": 6842,
      "indoors": 6843,
      "lifter": 6844,
      "signed": 6845,
      "laying": 6846,
      "provid": 6847,
      "ena": 6848,
      "bury": 6849,
      "rabbits": 6850,
      "kingdom": 6851,
      "bandage": 6852,
      "spear": 6853,
      "eclipse": 6854,
      "pages": 6855,
      "Sun": 6856,
      "peta": 6857,
      "object": 6858,
      "humane": 6859,
      "vienna": 6860,
      "valedic": 6861,
      "valedictorian": 6862,
      "via": 6863,
      "sparkled": 6864,
      "paws": 6865,
      "mask": 6866,
      "œLetâ": 6867,
      "ille": 6868,
      "grilling": 6869,
      "koi": 6870,
      "gurt": 6871,
      "migr": 6872,
      "massage": 6873,
      "aquariums": 6874,
      "snorkeling": 6875,
      "spr": 6876,
      "passing": 6877,
      "beagle": 6878,
      "beadwork": 6879,
      "dash": 6880,
      "designs": 6881,
      "copy": 6882,
      "weetie": 6883,
      "secrets": 6884,
      "ruin": 6885,
      "treating": 6886,
      "tempt": 6887,
      "incre": 6888,
      "despite": 6889,
      "œYes": 6890,
      "development": 6891,
      "ppl": 6892,
      "flints": 6893,
      "grabs": 6894,
      "vikings": 6895,
      "retrievers": 6896,
      "eranian": 6897,
      "mosqui": 6898,
      "pomeranian": 6899,
      "argentina": 6900,
      "funeral": 6901,
      "insist": 6902,
      "etsy": 6903,
      "curtain": 6904,
      "yogurt": 6905,
      "Bill": 6906,
      "œIt": 6907,
      "helicopter": 6908,
      "freeze": 6909,
      "comfy": 6910,
      "strich": 6911,
      "guitars": 6912,
      "ineers": 6913,
      "sciences": 6914,
      "whew": 6915,
      "respectful": 6916,
      "assy": 6917,
      "brighter": 6918,
      "rupt": 6919,
      "pineapple": 6920,
      "jerky": 6921,
      "rubber": 6922,
      "bringing": 6923,
      "bin": 6924,
      "bby": 6925,
      "buddhist": 6926,
      "separate": 6927,
      "ambitious": 6928,
      "cricket": 6929,
      "crunch": 6930,
      "tol": 6931,
      "slid": 6932,
      "Char": 6933,
      "pron": 6934,
      "attach": 6935,
      "attracted": 6936,
      "150": 6937,
      "torna": 6938,
      "idol": 6939,
      "santa": 6940,
      "loans": 6941,
      "backer": 6942,
      "culinary": 6943,
      "example": 6944,
      "thai": 6945,
      "Tweetie": 6946,
      "smarter": 6947,
      "warehouse": 6948,
      "loo": 6949,
      "inch": 6950,
      "dak": 6951,
      "stealing": 6952,
      "injury": 6953,
      "symphony": 6954,
      "tack": 6955,
      "aris": 6956,
      "pyramids": 6957,
      "compassionate": 6958,
      "floating": 6959,
      "clarinet": 6960,
      "balanced": 6961,
      "pure": 6962,
      "ras": 6963,
      "wher": 6964,
      "tiki": 6965,
      "prejud": 6966,
      "farts": 6967,
      "pressed": 6968,
      "pita": 6969,
      "katie": 6970,
      "ferraris": 6971,
      "disability": 6972,
      "jasper": 6973,
      "liberal": 6974,
      "subtitles": 6975,
      "sculp": 6976,
      "democr": 6977,
      "prejudice": 6978,
      "hairdresser": 6979,
      "octop": 6980,
      "surely": 6981,
      "shouts": 6982,
      "stylist": 6983,
      "require": 6984,
      "urge": 6985,
      "twirled": 6986,
      "sits": 6987,
      "shorts": 6988,
      "castles": 6989,
      "naw": 6990,
      "article": 6991,
      "survi": 6992,
      "danger": 6993,
      "joining": 6994,
      "thorns": 6995,
      "pound": 6996,
      "keto": 6997,
      "couldnâ": 6998,
      "services": 6999,
      "kra": 7000,
      "marines": 7001,
      "husbands": 7002,
      "winner": 7003,
      "clubbing": 7004,
      "batman": 7005,
      "introvert": 7006,
      "rolls": 7007,
      "ishment": 7008,
      "concentr": 7009,
      "benef": 7010,
      "vitamin": 7011,
      "benefits": 7012,
      "Sandy": 7013,
      "release": 7014,
      "preschool": 7015,
      "purchase": 7016,
      "sweaters": 7017,
      "coal": 7018,
      "tasting": 7019,
      "Yay": 7020,
      "illie": 7021,
      "international": 7022,
      "pires": 7023,
      "collies": 7024,
      "dieting": 7025,
      "crafting": 7026,
      "vampires": 7027,
      "nickel": 7028,
      "microphone": 7029,
      "oma": 7030,
      "sibling": 7031,
      "spoil": 7032,
      "cupboard": 7033,
      "lemonade": 7034,
      "octopus": 7035,
      "quiz": 7036,
      "fearful": 7037,
      "companies": 7038,
      "janitor": 7039,
      "asters": 7040,
      "hedge": 7041,
      "learnt": 7042,
      "rained": 7043,
      "bri": 7044,
      "snap": 7045,
      "respond": 7046,
      "ooky": 7047,
      "cardboard": 7048,
      "steam": 7049,
      "sailor": 7050,
      "aero": 7051,
      "follows": 7052,
      "pulls": 7053,
      "thirty": 7054,
      "pits": 7055,
      "ably": 7056,
      "shallow": 7057,
      "sailing": 7058,
      "flea": 7059,
      "nc": 7060,
      "unsure": 7061,
      "adoption": 7062,
      "frozen": 7063,
      "transport": 7064,
      "70s": 7065,
      "ostrich": 7066,
      "request": 7067,
      "jeff": 7068,
      "freaking": 7069,
      "jessica": 7070,
      "impala": 7071,
      "fears": 7072,
      "spill": 7073,
      "ulu": 7074,
      "oppy": 7075,
      "scenes": 7076,
      "drivers": 7077,
      "ketch": 7078,
      "crowded": 7079,
      "lent": 7080,
      "insp": 7081,
      "dishwasher": 7082,
      "belongs": 7083,
      "bond": 7084,
      "battle": 7085,
      "imp": 7086,
      "portra": 7087,
      "commitment": 7088,
      "minimum": 7089,
      "goodwill": 7090,
      "filming": 7091,
      "ebooks": 7092,
      "myalgia": 7093,
      "bromyalgia": 7094,
      "emergen": 7095,
      "quarterback": 7096,
      "edged": 7097,
      "petting": 7098,
      "streets": 7099,
      "wrestle": 7100,
      "chim": 7101,
      "spices": 7102,
      "brus": 7103,
      "highlights": 7104,
      "nerves": 7105,
      "sung": 7106,
      "merna": 7107,
      "outfits": 7108,
      "jag": 7109,
      "poison": 7110,
      "havi": 7111,
      "behavi": 7112,
      "vore": 7113,
      "fallen": 7114,
      "alike": 7115,
      "nba": 7116,
      "sar": 7117,
      "staff": 7118,
      "barbies": 7119,
      "videogames": 7120,
      "greenhouse": 7121,
      "boxers": 7122,
      "missou": 7123,
      "woodstock": 7124,
      "supply": 7125,
      "owe": 7126,
      "backwards": 7127,
      "designed": 7128,
      "lollipop": 7129,
      "thread": 7130,
      "aries": 7131,
      "surprising": 7132,
      "toss": 7133,
      "tripped": 7134,
      "programs": 7135,
      "38": 7136,
      "alert": 7137,
      "owners": 7138,
      "talents": 7139,
      "landing": 7140,
      "timber": 7141,
      "coon": 7142,
      "celt": 7143,
      "labs": 7144,
      "opportunities": 7145,
      "pshire": 7146,
      "linebacker": 7147,
      "hampshire": 7148,
      "felix": 7149,
      "reef": 7150,
      "coupon": 7151,
      "seashells": 7152,
      "Millie": 7153,
      "fortune": 7154,
      "kicking": 7155,
      "skull": 7156,
      "jan": 7157,
      "hare": 7158,
      "technically": 7159,
      "corporate": 7160,
      "daniels": 7161,
      "brewery": 7162,
      "diary": 7163,
      "bunnies": 7164,
      "ania": 7165,
      "purses": 7166,
      "ole": 7167,
      "fighters": 7168,
      "speckles": 7169,
      "dollar": 7170,
      "Before": 7171,
      "clutter": 7172,
      "pantry": 7173,
      "apps": 7174,
      "antiques": 7175,
      "tarot": 7176,
      "migrated": 7177,
      "rh": 7178,
      "Bud": 7179,
      "cardi": 7180,
      "thief": 7181,
      "rum": 7182,
      "inting": 7183,
      "hive": 7184,
      "suppor": 7185,
      "obsession": 7186,
      "situations": 7187,
      "hamil": 7188,
      "alarm": 7189,
      "tahoe": 7190,
      "fibromyalgia": 7191,
      "wednes": 7192,
      "ontario": 7193,
      "autobiographies": 7194,
      "battlest": 7195,
      "dakota": 7196,
      "supportive": 7197,
      "hamilton": 7198,
      "battlestar": 7199,
      "poke": 7200,
      "tone": 7201,
      "alpha": 7202,
      "welcomed": 7203,
      "Buddy": 7204,
      "ability": 7205,
      "foreman": 7206,
      "gambl": 7207,
      "communist": 7208,
      "sucker": 7209,
      "luis": 7210,
      "pedias": 7211,
      "encyclopedias": 7212,
      "wheres": 7213,
      "emergency": 7214,
      "Hen": 7215,
      "andro": 7216,
      "perfe": 7217,
      "medication": 7218,
      "digging": 7219,
      "somehow": 7220,
      "vendor": 7221,
      "ander": 7222,
      "stadi": 7223,
      "signific": 7224,
      "Red": 7225,
      "wildlife": 7226,
      "stains": 7227,
      "ribb": 7228,
      "albert": 7229,
      "unlike": 7230,
      "Everything": 7231,
      "fascinated": 7232,
      "Did": 7233,
      "stadium": 7234,
      "restless": 7235,
      "fying": 7236,
      "dev": 7237,
      "bananas": 7238,
      "limit": 7239,
      "leon": 7240,
      "barks": 7241,
      "mistakes": 7242,
      "northern": 7243,
      "Brownie": 7244,
      "2pac": 7245,
      "Al": 7246,
      "aven": 7247,
      "pis": 7248,
      "sitcom": 7249,
      "tues": 7250,
      "maiden": 7251,
      "beagles": 7252,
      "rena": 7253,
      "donuts": 7254,
      "shave": 7255,
      "regularly": 7256,
      "orchestra": 7257,
      "cact": 7258,
      "lam": 7259,
      "eras": 7260,
      "ignored": 7261,
      "8th": 7262,
      "tops": 7263,
      "yach": 7264,
      "completed": 7265,
      "gables": 7266,
      "betting": 7267,
      "issance": 7268,
      "fridays": 7269,
      "renaissance": 7270,
      "hest": 7271,
      "unior": 7272,
      "frogs": 7273,
      "cousin": 7274,
      "teenager": 7275,
      "Jerry": 7276,
      "pine": 7277,
      "listens": 7278,
      "basic": 7279,
      "aaaa": 7280,
      "buddies": 7281,
      "routine": 7282,
      "Ru": 7283,
      "crap": 7284,
      "troubled": 7285,
      "websites": 7286,
      "Bu": 7287,
      "buds": 7288,
      "44": 7289,
      "dare": 7290,
      "yr": 7291,
      "ory": 7292,
      "grandsons": 7293,
      "urally": 7294,
      "shield": 7295,
      "naturally": 7296,
      "fluently": 7297,
      "coz": 7298,
      "shoulder": 7299,
      "tales": 7300,
      "tracks": 7301,
      "award": 7302,
      "maze": 7303,
      "elephants": 7304,
      "intri": 7305,
      "ures": 7306,
      "vity": 7307,
      "combat": 7308,
      "magazines": 7309,
      "intrigu": 7310,
      "cise": 7311,
      "hr": 7312,
      "haul": 7313,
      "shifts": 7314,
      "transition": 7315,
      "dorms": 7316,
      "morty": 7317,
      "thriller": 7318,
      "tricky": 7319,
      "sprink": 7320,
      "wheat": 7321,
      "distri": 7322,
      "cuddling": 7323,
      "leased": 7324,
      "kisses": 7325,
      "itches": 7326,
      "powers": 7327,
      "Bunny": 7328,
      "Mag": 7329,
      "promotion": 7330,
      "period": 7331,
      "histor": 7332,
      "consuming": 7333,
      "yacht": 7334,
      "leop": 7335,
      "harvey": 7336,
      "historical": 7337,
      "leopard": 7338,
      "boot": 7339,
      "patrol": 7340,
      "crabs": 7341,
      "sticker": 7342,
      "cactus": 7343,
      "checking": 7344,
      "trapped": 7345,
      "quietly": 7346,
      "junior": 7347,
      "gae": 7348,
      "rested": 7349,
      "dane": 7350,
      "md": 7351,
      "dope": 7352,
      "holic": 7353,
      "carl": 7354,
      "manning": 7355,
      "appl": 7356,
      "samsung": 7357,
      "guru": 7358,
      "flintstones": 7359,
      "grape": 7360,
      "rhino": 7361,
      "deals": 7362,
      "œThat": 7363,
      "presents": 7364,
      "inspire": 7365,
      "Henry": 7366,
      "mice": 7367,
      "county": 7368,
      "session": 7369,
      "actors": 7370,
      "otter": 7371,
      "quet": 7372,
      "waist": 7373,
      "colours": 7374,
      "gary": 7375,
      "lons": 7376,
      "glac": 7377,
      "mons": 7378,
      "yorkie": 7379,
      "triathlons": 7380,
      "toile": 7381,
      "ringing": 7382,
      "itter": 7383,
      "gad": 7384,
      "Tr": 7385,
      "accidents": 7386,
      "Snow": 7387,
      "dun": 7388,
      "sandbox": 7389,
      "cupcake": 7390,
      "bouncing": 7391,
      "Whis": 7392,
      "drinker": 7393,
      "simply": 7394,
      "significant": 7395,
      "kom": 7396,
      "spooky": 7397,
      "troo": 7398,
      "couver": 7399,
      "vancouver": 7400,
      "loner": 7401,
      "sexy": 7402,
      "lumberjack": 7403,
      "miley": 7404,
      "rr": 7405,
      "dew": 7406,
      "driven": 7407,
      "uu": 7408,
      "marching": 7409,
      "root": 7410,
      "restored": 7411,
      "avocado": 7412,
      "ata": 7413,
      "yrs": 7414,
      "isham": 7415,
      "grisham": 7416,
      "lesbian": 7417,
      "gien": 7418,
      "hygien": 7419,
      "forgotten": 7420,
      "missouri": 7421,
      "esp": 7422,
      "pushes": 7423,
      "Maria": 7424,
      "camper": 7425,
      "iser": 7426,
      "grilled": 7427,
      "penguin": 7428,
      "curry": 7429,
      "dealer": 7430,
      "pastime": 7431,
      "Whiskers": 7432,
      "rition": 7433,
      "twink": 7434,
      "nutrition": 7435,
      "wreck": 7436,
      "stirred": 7437,
      "bc": 7438,
      "zania": 7439,
      "deployed": 7440,
      "preference": 7441,
      "storms": 7442,
      "burrito": 7443,
      "pageant": 7444,
      "tanzania": 7445,
      "administration": 7446,
      "pediatrician": 7447,
      "stinky": 7448,
      "Charlie": 7449,
      "Annie": 7450,
      "visits": 7451,
      "500": 7452,
      "crawling": 7453,
      "effort": 7454,
      "Harry": 7455,
      "aby": 7456,
      "ambul": 7457,
      "worn": 7458,
      "wisdom": 7459,
      "arre": 7460,
      "markets": 7461,
      "pills": 7462,
      "threat": 7463,
      "budget": 7464,
      "bust": 7465,
      "viny": 7466,
      "soil": 7467,
      "ady": 7468,
      "explorer": 7469,
      "employment": 7470,
      "Is": 7471,
      "mma": 7472,
      "comet": 7473,
      "discover": 7474,
      "barefoot": 7475,
      "cheetahs": 7476,
      "enthusiastic": 7477,
      "frowned": 7478,
      "daisy": 7479,
      "planting": 7480,
      "below": 7481,
      "triangle": 7482,
      "organizing": 7483,
      "42": 7484,
      "tony": 7485,
      "backstreet": 7486,
      "sleeve": 7487,
      "decision": 7488,
      "retires": 7489,
      "semi": 7490,
      "skier": 7491,
      "softly": 7492,
      "pitbull": 7493,
      "nationals": 7494,
      "denmark": 7495,
      "prayer": 7496,
      "rollerblading": 7497,
      "pressure": 7498,
      "fashioned": 7499,
      "beyond": 7500,
      "jars": 7501,
      "sphere": 7502,
      "cube": 7503,
      "hiked": 7504,
      "handsome": 7505,
      "queens": 7506,
      "Ho": 7507,
      "shrug": 7508,
      "islands": 7509,
      "ambulance": 7510,
      "vroom": 7511,
      "wic": 7512,
      "recru": 7513,
      "reviews": 7514,
      "sickness": 7515,
      "Smi": 7516,
      "biz": 7517,
      "pebble": 7518,
      "tatoo": 7519,
      "posse": 7520,
      "bomb": 7521,
      "Smith": 7522,
      "pey": 7523,
      "render": 7524,
      "axe": 7525,
      "cared": 7526,
      "wishing": 7527,
      "ria": 7528,
      "surprises": 7529,
      "atmo": 7530,
      "severe": 7531,
      "atmosphere": 7532,
      "400": 7533,
      "agit": 7534,
      "housewife": 7535,
      "syrac": 7536,
      "celebrities": 7537,
      "syracuse": 7538,
      "uit": 7539,
      "scenery": 7540,
      "performance": 7541,
      "habits": 7542,
      "unicycle": 7543,
      "answers": 7544,
      "raft": 7545,
      "ridic": 7546,
      "pastor": 7547,
      "lum": 7548,
      "oon": 7549,
      "gos": 7550,
      "These": 7551,
      "forgetful": 7552,
      "discuss": 7553,
      "holster": 7554,
      "f150": 7555,
      "kpop": 7556,
      "influ": 7557,
      "seats": 7558,
      "upholster": 7559,
      "deadbeat": 7560,
      "blogger": 7561,
      "suburban": 7562,
      "homeschooled": 7563,
      "maddie": 7564,
      "musicians": 7565,
      "Lee": 7566,
      "packs": 7567,
      "pedal": 7568,
      "relative": 7569,
      "sneeze": 7570,
      "causes": 7571,
      "repeat": 7572,
      "marine": 7573,
      "bach": 7574,
      "candies": 7575,
      "nanette": 7576,
      "restore": 7577,
      "participate": 7578,
      "goof": 7579,
      "stro": 7580,
      "wipe": 7581,
      "dip": 7582,
      "lux": 7583,
      "perks": 7584,
      "profit": 7585,
      "crackers": 7586,
      "cock": 7587,
      "shorter": 7588,
      "mental": 7589,
      "eyesight": 7590,
      "honeymoon": 7591,
      "involves": 7592,
      "texting": 7593,
      "hitch": 7594,
      "changes": 7595,
      "socialize": 7596,
      "pc": 7597,
      "rey": 7598,
      "playoffs": 7599,
      "sunfish": 7600,
      "promoted": 7601,
      "shovel": 7602,
      "frequ": 7603,
      "waving": 7604,
      "motion": 7605,
      "generation": 7606,
      "diction": 7607,
      "swinging": 7608,
      "saxo": 7609,
      "dred": 7610,
      "buried": 7611,
      "hundred": 7612,
      "burning": 7613,
      "buck": 7614,
      "removed": 7615,
      "shots": 7616,
      "pastries": 7617,
      "june": 7618,
      "erd": 7619,
      "schooling": 7620,
      "forens": 7621,
      "paino": 7622,
      "formal": 7623,
      "cheerleading": 7624,
      "niagra": 7625,
      "roared": 7626,
      "umn": 7627,
      "whose": 7628,
      "inspiring": 7629,
      "lawn": 7630,
      "slipper": 7631,
      "jellyfish": 7632,
      "stray": 7633,
      "brains": 7634,
      "marble": 7635,
      "beds": 7636,
      "source": 7637,
      "veal": 7638,
      "forgave": 7639,
      "fathers": 7640,
      "galact": 7641,
      "beginning": 7642,
      "econom": 7643,
      "33": 7644,
      "shrink": 7645,
      "careers": 7646,
      "curator": 7647,
      "destroy": 7648,
      "risky": 7649,
      "lips": 7650,
      "fulfilling": 7651,
      "messed": 7652,
      "clapping": 7653,
      "Lilly": 7654,
      "scold": 7655,
      "eighteen": 7656,
      "quarrel": 7657,
      "crunchy": 7658,
      "thm": 7659,
      "cheat": 7660,
      "whom": 7661,
      "keyboard": 7662,
      "didnâ": 7663,
      "delivered": 7664,
      "binder": 7665,
      "anger": 7666,
      "collector": 7667,
      "dried": 7668,
      "oz": 7669,
      "doggy": 7670,
      "homebody": 7671,
      "grows": 7672,
      "pageants": 7673,
      "hhh": 7674,
      "chemistry": 7675,
      "lenses": 7676,
      "Papa": 7677,
      "ials": 7678,
      "cherish": 7679,
      "delay": 7680,
      "dump": 7681,
      "Tweet": 7682,
      "wins": 7683,
      "impossible": 7684,
      "250": 7685,
      "43": 7686,
      "infant": 7687,
      "bados": 7688,
      "barbados": 7689,
      "128": 7690,
      "arabic": 7691,
      "gressive": 7692,
      "zombie": 7693,
      "eraser": 7694,
      "peyton": 7695,
      "lee": 7696,
      "descri": 7697,
      "focusing": 7698,
      "ji": 7699,
      "chains": 7700,
      "folder": 7701,
      "agno": 7702,
      "abroad": 7703,
      "shopkeeper": 7704,
      "squeeze": 7705,
      "una": 7706,
      "bothers": 7707,
      "cosmet": 7708,
      "cache": 7709,
      "crashed": 7710,
      "victorian": 7711,
      "geocache": 7712,
      "chimney": 7713,
      "smoked": 7714,
      "snaps": 7715,
      "Jess": 7716,
      "swear": 7717,
      "sole": 7718,
      "lollipops": 7719,
      "citi": 7720,
      "chop": 7721,
      "cheeks": 7722,
      "employee": 7723,
      "bums": 7724,
      "drops": 7725,
      "batter": 7726,
      "convenient": 7727,
      "pattern": 7728,
      "2016": 7729,
      "sprite": 7730,
      "orlan": 7731,
      "oldies": 7732,
      "percy": 7733,
      "gerald": 7734,
      "ignore": 7735,
      "gutters": 7736,
      "trauma": 7737,
      "sitcoms": 7738,
      "orlando": 7739,
      "sipping": 7740,
      "businesses": 7741,
      "Danny": 7742,
      "isn": 7743,
      "tress": 7744,
      "motivated": 7745,
      "shoulders": 7746,
      "investig": 7747,
      "hooked": 7748,
      "spit": 7749,
      "temp": 7750,
      "pastry": 7751,
      "spirited": 7752,
      "supports": 7753,
      "loaded": 7754,
      "ential": 7755,
      "butt": 7756,
      "minor": 7757,
      "disappointing": 7758,
      "perfection": 7759,
      "reinde": 7760,
      "petition": 7761,
      "meds": 7762,
      "iter": 7763,
      "acorn": 7764,
      "suv": 7765,
      "headaches": 7766,
      "century": 7767,
      "greys": 7768,
      "nickelback": 7769,
      "386": 7770,
      "celtics": 7771,
      "reaches": 7772,
      "figur": 7773,
      "trusted": 7774,
      "yy": 7775,
      "sili": 7776,
      "zoomed": 7777,
      "Cl": 7778,
      "Baby": 7779,
      "hog": 7780,
      "happiest": 7781,
      "wonders": 7782,
      "direct": 7783,
      "wardrobe": 7784,
      "excuse": 7785,
      "tornado": 7786,
      "ht": 7787,
      "ravio": 7788,
      "cheated": 7789,
      "hearts": 7790,
      "supple": 7791,
      "cyrus": 7792,
      "sonian": 7793,
      "bummed": 7794,
      "odles": 7795,
      "smithsonian": 7796,
      "savage": 7797,
      "upholstery": 7798,
      "silicon": 7799,
      "ravioli": 7800,
      "depending": 7801,
      "barbeque": 7802,
      "noodles": 7803,
      "emotions": 7804,
      "ativity": 7805,
      "Kate": 7806,
      "rake": 7807,
      "ys": 7808,
      "indi": 7809,
      "gies": 7810,
      "manta": 7811,
      "ancy": 7812,
      "ppuc": 7813,
      "depot": 7814,
      "cappuc": 7815,
      "trem": 7816,
      "fallout": 7817,
      "twig": 7818,
      "servative": 7819,
      "linkin": 7820,
      "adjust": 7821,
      "confusing": 7822,
      "benefit": 7823,
      "osie": 7824,
      "testing": 7825,
      "sip": 7826,
      "fullest": 7827,
      "Thanks": 7828,
      "ridiculous": 7829,
      "excl": 7830,
      "lotion": 7831,
      "admiring": 7832,
      "dodge": 7833,
      "600": 7834,
      "hrs": 7835,
      "retro": 7836,
      "joint": 7837,
      "degrees": 7838,
      "tracy": 7839,
      "chronic": 7840,
      "36": 7841,
      "grave": 7842,
      "Ju": 7843,
      "hadn": 7844,
      "flops": 7845,
      "autumn": 7846,
      "reindeer": 7847,
      "dise": 7848,
      "belly": 7849,
      "decorations": 7850,
      "motivation": 7851,
      "arily": 7852,
      "ceiling": 7853,
      "blueberry": 7854,
      "screw": 7855,
      "ux": 7856,
      "discount": 7857,
      "bec": 7858,
      "meaning": 7859,
      "cucum": 7860,
      "cucumbers": 7861,
      "vro": 7862,
      "illino": 7863,
      "chevro": 7864,
      "majo": 7865,
      "cursive": 7866,
      "raptors": 7867,
      "kites": 7868,
      "consult": 7869,
      "tailgate": 7870,
      "pitbulls": 7871,
      "olympic": 7872,
      "murals": 7873,
      "illinois": 7874,
      "chevrolet": 7875,
      "lend": 7876,
      "Maggie": 7877,
      "grin": 7878,
      "granny": 7879,
      "piercing": 7880,
      "tallest": 7881,
      "fifty": 7882,
      "likely": 7883,
      "operation": 7884,
      "legen": 7885,
      "violinist": 7886,
      "thrilled": 7887,
      "legends": 7888,
      "lute": 7889,
      "incar": 7890,
      "sheeran": 7891,
      "hardcore": 7892,
      "torn": 7893,
      "dublin": 7894,
      "austria": 7895,
      "digital": 7896,
      "depressing": 7897,
      "document": 7898,
      "fisk": 7899,
      "lutefisk": 7900,
      "ops": 7901,
      "passport": 7902,
      "pm": 7903,
      "reveal": 7904,
      "enced": 7905,
      "eter": 7906,
      "mixer": 7907,
      "sizes": 7908,
      "speaks": 7909,
      "trailer": 7910,
      "eyed": 7911,
      "coasters": 7912,
      "udi": 7913,
      "landscape": 7914,
      "survived": 7915,
      "cine": 7916,
      "zu": 7917,
      "wii": 7918,
      "plates": 7919,
      "surrender": 7920,
      "hostage": 7921,
      "peek": 7922,
      "adays": 7923,
      "aws": 7924,
      "monsters": 7925,
      "throws": 7926,
      "lil": 7927,
      "sunglasses": 7928,
      "dealers": 7929,
      "zookeeper": 7930,
      "fifteen": 7931,
      "slippery": 7932,
      "tore": 7933,
      "lower": 7934,
      "cushion": 7935,
      "encouraged": 7936,
      "reen": 7937,
      "pizzas": 7938,
      "dropping": 7939,
      "rejected": 7940,
      "stic": 7941,
      "nowadays": 7942,
      "olds": 7943,
      "sandy": 7944,
      "ghest": 7945,
      "bets": 7946,
      "crib": 7947,
      "auditioned": 7948,
      "sprayed": 7949,
      "Miss": 7950,
      "amate": 7951,
      "butcher": 7952,
      "saudi": 7953,
      "ela": 7954,
      "drown": 7955,
      "packers": 7956,
      "radiohead": 7957,
      "leroy": 7958,
      "amateur": 7959,
      "fairly": 7960,
      "screaming": 7961,
      "marched": 7962,
      "James": 7963,
      "orders": 7964,
      "kitties": 7965,
      "supermarket": 7966,
      "hangout": 7967,
      "leaned": 7968,
      "issi": 7969,
      "william": 7970,
      "vegetarians": 7971,
      "laws": 7972,
      "Because": 7973,
      "temple": 7974,
      "mortician": 7975,
      "finances": 7976,
      "risk": 7977,
      "ait": 7978,
      "attached": 7979,
      "fifth": 7980,
      "bam": 7981,
      "hola": 7982,
      "responsible": 7983,
      "received": 7984,
      "fauc": 7985,
      "imi": 7986,
      "nament": 7987,
      "label": 7988,
      "sparks": 7989,
      "faucet": 7990,
      "34": 7991,
      "brag": 7992,
      "koala": 7993,
      "refuse": 7994,
      "requires": 7995,
      "pirates": 7996,
      "reddit": 7997,
      "sham": 7998,
      "drafted": 7999
    },
    "merges": [
      [
        "a",
        "n"
      ],
      [
        "e",
        "r"
      ],
      [
        "t",
        "h"
      ],
      [
        "i",
        "s"
      ],
      [
        "i",
        "n"
      ],
      [
        "o",
        "u"
      ],
      [
        "a",
        "s"
      ],
      [
        "u",
        "s"
      ],
      [
        "an",
        "t"
      ],
      [
        "a",
        "t"
      ],
      [
        "t",
        "o"
      ],
      [
        "is",
        "t"
      ],
      [
        "r",
        "e"
      ],
      [
        "as",
        "s"
      ],
      [
        "ist",
        "ant"
      ],
      [
        "ass",
        "istant"
      ],
      [
        "us",
        "er"
      ],
      [
        "y",
        "ou"
      ],
      [
        "th",
        "e"
      ],
      [
        "in",
        "g"
      ],
      [
        "v",
        "e"
      ],
      [
        "h",
        "e"
      ],
      [
        "o",
        "r"
      ],
      [
        "m",
        "e"
      ],
      [
        "d",
        "o"
      ],
      [
        "i",
        "t"
      ],
      [
        "l",
        "l"
      ],
      [
        "an",
        "d"
      ],
      [
        "o",
        "n"
      ],
      [
        "h",
        "a"
      ],
      [
        "k",
        "e"
      ],
      [
        "a",
        "r"
      ],
      [
        "e",
        "s"
      ],
      [
        "a",
        "m"
      ],
      [
        "n",
        "o"
      ],
      [
        "m",
        "y"
      ],
      [
        "l",
        "i"
      ],
      [
        "e",
        "n"
      ],
      [
        "a",
        "y"
      ],
      [
        "o",
        "o"
      ],
      [
        "e",
        "d"
      ],
      [
        "h",
        "o"
      ],
      [
        "l",
        "o"
      ],
      [
        "a",
        "re"
      ],
      [
        "th",
        "at"
      ],
      [
        "b",
        "e"
      ],
      [
        "s",
        "o"
      ],
      [
        "w",
        "h"
      ],
      [
        "l",
        "e"
      ],
      [
        "i",
        "c"
      ],
      [
        "ha",
        "ve"
      ],
      [
        "a",
        "l"
      ],
      [
        "c",
        "h"
      ],
      [
        "li",
        "ke"
      ],
      [
        "i",
        "d"
      ],
      [
        "o",
        "f"
      ],
      [
        "a",
        "ll"
      ],
      [
        "l",
        "d"
      ],
      [
        "s",
        "t"
      ],
      [
        "no",
        "t"
      ],
      [
        "w",
        "i"
      ],
      [
        "w",
        "as"
      ],
      [
        "u",
        "t"
      ],
      [
        "o",
        "m"
      ],
      [
        "f",
        "or"
      ],
      [
        "l",
        "y"
      ],
      [
        "v",
        "er"
      ],
      [
        "wh",
        "at"
      ],
      [
        "a",
        "d"
      ],
      [
        "s",
        "e"
      ],
      [
        "er",
        "e"
      ],
      [
        "r",
        "i"
      ],
      [
        "w",
        "e"
      ],
      [
        "g",
        "h"
      ],
      [
        "n",
        "e"
      ],
      [
        "u",
        "n"
      ],
      [
        "ho",
        "w"
      ],
      [
        "g",
        "o"
      ],
      [
        "lo",
        "ve"
      ],
      [
        "t",
        "i"
      ],
      [
        "e",
        "t"
      ],
      [
        "ou",
        "t"
      ],
      [
        "oo",
        "d"
      ],
      [
        "a",
        "c"
      ],
      [
        "wi",
        "th"
      ],
      [
        "e",
        "o"
      ],
      [
        "ou",
        "ld"
      ],
      [
        "d",
        "ay"
      ],
      [
        "i",
        "r"
      ],
      [
        "w",
        "or"
      ],
      [
        "T",
        "he"
      ],
      [
        "r",
        "y"
      ],
      [
        "b",
        "ut"
      ],
      [
        "p",
        "l"
      ],
      [
        "h",
        "i"
      ],
      [
        "us",
        "t"
      ],
      [
        "a",
        "b"
      ],
      [
        "m",
        "o"
      ],
      [
        "r",
        "o"
      ],
      [
        "g",
        "ood"
      ],
      [
        "s",
        "a"
      ],
      [
        "ou",
        "n"
      ],
      [
        "eo",
        "s"
      ],
      [
        "wor",
        "k"
      ],
      [
        "gh",
        "t"
      ],
      [
        "j",
        "ust"
      ],
      [
        "c",
        "o"
      ],
      [
        "ver",
        "y"
      ],
      [
        "to",
        "o"
      ],
      [
        "ti",
        "me"
      ],
      [
        "a",
        "ke"
      ],
      [
        "you",
        "r"
      ],
      [
        "u",
        "p"
      ],
      [
        "f",
        "e"
      ],
      [
        "d",
        "s"
      ],
      [
        "an",
        "y"
      ],
      [
        "so",
        "me"
      ],
      [
        "on",
        "e"
      ],
      [
        "all",
        "y"
      ],
      [
        "t",
        "er"
      ],
      [
        "oo",
        "l"
      ],
      [
        "r",
        "a"
      ],
      [
        "h",
        "er"
      ],
      [
        "e",
        "a"
      ],
      [
        "th",
        "er"
      ],
      [
        "pl",
        "ay"
      ],
      [
        "the",
        "y"
      ],
      [
        "c",
        "e"
      ],
      [
        "c",
        "an"
      ],
      [
        "g",
        "re"
      ],
      [
        "th",
        "ing"
      ],
      [
        "s",
        "h"
      ],
      [
        "ic",
        "e"
      ],
      [
        "it",
        "e"
      ],
      [
        "p",
        "p"
      ],
      [
        "no",
        "w"
      ],
      [
        "a",
        "me"
      ],
      [
        "i",
        "ly"
      ],
      [
        "u",
        "r"
      ],
      [
        "oo",
        "k"
      ],
      [
        "s",
        "he"
      ],
      [
        "ab",
        "out"
      ],
      [
        "g",
        "et"
      ],
      [
        "th",
        "ere"
      ],
      [
        "j",
        "o"
      ],
      [
        "s",
        "p"
      ],
      [
        "H",
        "e"
      ],
      [
        "S",
        "he"
      ],
      [
        "b",
        "i"
      ],
      [
        "f",
        "a"
      ],
      [
        "g",
        "e"
      ],
      [
        "o",
        "w"
      ],
      [
        "The",
        "y"
      ],
      [
        "f",
        "r"
      ],
      [
        "w",
        "ould"
      ],
      [
        "t",
        "s"
      ],
      [
        "w",
        "ant"
      ],
      [
        "o",
        "h"
      ],
      [
        "i",
        "m"
      ],
      [
        "y",
        "es"
      ],
      [
        "in",
        "d"
      ],
      [
        "s",
        "to"
      ],
      [
        "b",
        "o"
      ],
      [
        "w",
        "ay"
      ],
      [
        "f",
        "un"
      ],
      [
        "we",
        "ll"
      ],
      [
        "en",
        "t"
      ],
      [
        "gre",
        "at"
      ],
      [
        "fr",
        "om"
      ],
      [
        "f",
        "ri"
      ],
      [
        "fa",
        "v"
      ],
      [
        "sa",
        "id"
      ],
      [
        "ar",
        "t"
      ],
      [
        "e",
        "ll"
      ],
      [
        "n",
        "ice"
      ],
      [
        "ha",
        "d"
      ],
      [
        "fri",
        "en"
      ],
      [
        "the",
        "m"
      ],
      [
        "fav",
        "or"
      ],
      [
        "es",
        "t"
      ],
      [
        "c",
        "ool"
      ],
      [
        "h",
        "is"
      ],
      [
        "d",
        "e"
      ],
      [
        "do",
        "ing"
      ],
      [
        "k",
        "ing"
      ],
      [
        "he",
        "n"
      ],
      [
        "favor",
        "ite"
      ],
      [
        "m",
        "om"
      ],
      [
        "p",
        "e"
      ],
      [
        "at",
        "e"
      ],
      [
        "ac",
        "k"
      ],
      [
        "c",
        "k"
      ],
      [
        "or",
        "t"
      ],
      [
        "i",
        "f"
      ],
      [
        "do",
        "g"
      ],
      [
        "ke",
        "d"
      ],
      [
        "re",
        "ally"
      ],
      [
        "wi",
        "ll"
      ],
      [
        "u",
        "l"
      ],
      [
        "u",
        "re"
      ],
      [
        "L",
        "ily"
      ],
      [
        "e",
        "x"
      ],
      [
        "it",
        "s"
      ],
      [
        "it",
        "t"
      ],
      [
        "s",
        "oun"
      ],
      [
        "m",
        "ake"
      ],
      [
        "is",
        "h"
      ],
      [
        "re",
        "ad"
      ],
      [
        "w",
        "at"
      ],
      [
        "in",
        "e"
      ],
      [
        "p",
        "re"
      ],
      [
        "d",
        "id"
      ],
      [
        "li",
        "ve"
      ],
      [
        "i",
        "l"
      ],
      [
        "lo",
        "t"
      ],
      [
        "c",
        "ar"
      ],
      [
        "er",
        "s"
      ],
      [
        "ha",
        "pp"
      ],
      [
        "m",
        "us"
      ],
      [
        "ll",
        "o"
      ],
      [
        "m",
        "u"
      ],
      [
        "in",
        "k"
      ],
      [
        "w",
        "hen"
      ],
      [
        "i",
        "ght"
      ],
      [
        "go",
        "t"
      ],
      [
        "i",
        "on"
      ],
      [
        "c",
        "ould"
      ],
      [
        "ou",
        "gh"
      ],
      [
        "on",
        "g"
      ],
      [
        "th",
        "an"
      ],
      [
        "es",
        "s"
      ],
      [
        "to",
        "day"
      ],
      [
        "bi",
        "g"
      ],
      [
        "e",
        "l"
      ],
      [
        "u",
        "m"
      ],
      [
        "as",
        "t"
      ],
      [
        "itt",
        "le"
      ],
      [
        "he",
        "llo"
      ],
      [
        "ne",
        "w"
      ],
      [
        "a",
        "g"
      ],
      [
        "mus",
        "ic"
      ],
      [
        "l",
        "ittle"
      ],
      [
        "e",
        "at"
      ],
      [
        "a",
        "in"
      ],
      [
        "k",
        "now"
      ],
      [
        "soun",
        "ds"
      ],
      [
        "mu",
        "ch"
      ],
      [
        "p",
        "le"
      ],
      [
        "v",
        "ing"
      ],
      [
        "oun",
        "d"
      ],
      [
        "wh",
        "ere"
      ],
      [
        "b",
        "l"
      ],
      [
        "t",
        "ry"
      ],
      [
        "y",
        "ea"
      ],
      [
        "n",
        "ame"
      ],
      [
        "k",
        "id"
      ],
      [
        "se",
        "e"
      ],
      [
        "g",
        "r"
      ],
      [
        "sh",
        "ort"
      ],
      [
        "ar",
        "d"
      ],
      [
        "c",
        "at"
      ],
      [
        "c",
        "a"
      ],
      [
        "i",
        "ll"
      ],
      [
        "he",
        "l"
      ],
      [
        "t",
        "y"
      ],
      [
        "id",
        "e"
      ],
      [
        "sto",
        "ry"
      ],
      [
        "y",
        "e"
      ],
      [
        "jo",
        "y"
      ],
      [
        "mo",
        "re"
      ],
      [
        "a",
        "w"
      ],
      [
        "hel",
        "p"
      ],
      [
        "c",
        "om"
      ],
      [
        "s",
        "m"
      ],
      [
        "c",
        "i"
      ],
      [
        "p",
        "o"
      ],
      [
        "go",
        "ing"
      ],
      [
        "en",
        "joy"
      ],
      [
        "happ",
        "y"
      ],
      [
        "us",
        "e"
      ],
      [
        "T",
        "ell"
      ],
      [
        "yea",
        "h"
      ],
      [
        "kid",
        "s"
      ],
      [
        "u",
        "e"
      ],
      [
        "s",
        "ch"
      ],
      [
        "e",
        "p"
      ],
      [
        "ou",
        "r"
      ],
      [
        "sch",
        "ool"
      ],
      [
        "be",
        "en"
      ],
      [
        "wat",
        "ch"
      ],
      [
        "ho",
        "me"
      ],
      [
        "t",
        "r"
      ],
      [
        "re",
        "d"
      ],
      [
        "ir",
        "l"
      ],
      [
        "t",
        "ing"
      ],
      [
        "l",
        "f"
      ],
      [
        "i",
        "es"
      ],
      [
        "g",
        "irl"
      ],
      [
        "ve",
        "n"
      ],
      [
        "w",
        "ere"
      ],
      [
        "I",
        "t"
      ],
      [
        "c",
        "he"
      ],
      [
        "frien",
        "ds"
      ],
      [
        "c",
        "are"
      ],
      [
        "p",
        "r"
      ],
      [
        "b",
        "ack"
      ],
      [
        "jo",
        "b"
      ],
      [
        "hi",
        "m"
      ],
      [
        "e",
        "very"
      ],
      [
        "u",
        "d"
      ],
      [
        "k",
        "ind"
      ],
      [
        "o",
        "ld"
      ],
      [
        "lo",
        "l"
      ],
      [
        "f",
        "ood"
      ],
      [
        "t",
        "ra"
      ],
      [
        "ea",
        "ch"
      ],
      [
        "ha",
        "r"
      ],
      [
        "be",
        "t"
      ],
      [
        "ri",
        "ght"
      ],
      [
        "o",
        "k"
      ],
      [
        "i",
        "e"
      ],
      [
        "th",
        "is"
      ],
      [
        "b",
        "all"
      ],
      [
        "o",
        "ther"
      ],
      [
        "d",
        "er"
      ],
      [
        "g",
        "u"
      ],
      [
        "m",
        "a"
      ],
      [
        "s",
        "s"
      ],
      [
        "al",
        "so"
      ],
      [
        "t",
        "ake"
      ],
      [
        "w",
        "n"
      ],
      [
        "sa",
        "w"
      ],
      [
        "se",
        "lf"
      ],
      [
        "ne",
        "ver"
      ],
      [
        "w",
        "ow"
      ],
      [
        "f",
        "am"
      ],
      [
        "way",
        "s"
      ],
      [
        "th",
        "ink"
      ],
      [
        "ye",
        "ar"
      ],
      [
        "o",
        "me"
      ],
      [
        "u",
        "ck"
      ],
      [
        "h",
        "ere"
      ],
      [
        "f",
        "o"
      ],
      [
        "pre",
        "t"
      ],
      [
        "s",
        "ay"
      ],
      [
        "l",
        "a"
      ],
      [
        "frien",
        "d"
      ],
      [
        "ri",
        "ed"
      ],
      [
        "m",
        "an"
      ],
      [
        "t",
        "e"
      ],
      [
        "co",
        "l"
      ],
      [
        "al",
        "ways"
      ],
      [
        "ne",
        "ed"
      ],
      [
        ".",
        "\""
      ],
      [
        "re",
        "e"
      ],
      [
        "f",
        "ul"
      ],
      [
        "than",
        "k"
      ],
      [
        "l",
        "ook"
      ],
      [
        "the",
        "ir"
      ],
      [
        "m",
        "ar"
      ],
      [
        "th",
        "ough"
      ],
      [
        "b",
        "y"
      ],
      [
        "sh",
        "ould"
      ],
      [
        "s",
        "or"
      ],
      [
        "in",
        "ter"
      ],
      [
        "en",
        "d"
      ],
      [
        "n",
        "ight"
      ],
      [
        "i",
        "ve"
      ],
      [
        "ou",
        "s"
      ],
      [
        "w",
        "ho"
      ],
      [
        "c",
        "ook"
      ],
      [
        "p",
        "et"
      ],
      [
        "t",
        "w"
      ],
      [
        "m",
        "ay"
      ],
      [
        "want",
        "ed"
      ],
      [
        "c",
        "on"
      ],
      [
        "l",
        "ist"
      ],
      [
        "O",
        "ne"
      ],
      [
        "u",
        "g"
      ],
      [
        "T",
        "im"
      ],
      [
        "sor",
        "ry"
      ],
      [
        "b",
        "ook"
      ],
      [
        "pret",
        "ty"
      ],
      [
        "n",
        "t"
      ],
      [
        "fam",
        "ily"
      ],
      [
        "b",
        "ro"
      ],
      [
        "on",
        "ly"
      ],
      [
        "c",
        "it"
      ],
      [
        "s",
        "ide"
      ],
      [
        "!",
        "\""
      ],
      [
        "the",
        "n"
      ],
      [
        "mo",
        "st"
      ],
      [
        "s",
        "ure"
      ],
      [
        "O",
        "n"
      ],
      [
        "p",
        "eo"
      ],
      [
        "n",
        "ing"
      ],
      [
        "w",
        "ent"
      ],
      [
        "n",
        "a"
      ],
      [
        "es",
        "ome"
      ],
      [
        "dog",
        "s"
      ],
      [
        "p",
        "ar"
      ],
      [
        "aw",
        "esome"
      ],
      [
        "list",
        "en"
      ],
      [
        "l",
        "ong"
      ],
      [
        "peo",
        "ple"
      ],
      [
        "r",
        "un"
      ],
      [
        "ac",
        "e"
      ],
      [
        "a",
        "f"
      ],
      [
        "q",
        "u"
      ],
      [
        "On",
        "ce"
      ],
      [
        "c",
        "l"
      ],
      [
        "co",
        "me"
      ],
      [
        "thing",
        "s"
      ],
      [
        "g",
        "ame"
      ],
      [
        "ac",
        "t"
      ],
      [
        "bo",
        "y"
      ],
      [
        "ca",
        "use"
      ],
      [
        "ve",
        "l"
      ],
      [
        "ho",
        "b"
      ],
      [
        "p",
        "i"
      ],
      [
        "do",
        "es"
      ],
      [
        "co",
        "ll"
      ],
      [
        "st",
        "art"
      ],
      [
        "s",
        "ing"
      ],
      [
        "w",
        "al"
      ],
      [
        "ic",
        "k"
      ],
      [
        "p",
        "ro"
      ],
      [
        "ar",
        "ound"
      ],
      [
        "b",
        "and"
      ],
      [
        "of",
        "f"
      ],
      [
        "ad",
        "e"
      ],
      [
        "b",
        "est"
      ],
      [
        "t",
        "each"
      ],
      [
        "an",
        "im"
      ],
      [
        "fe",
        "el"
      ],
      [
        "al",
        "s"
      ],
      [
        "time",
        "s"
      ],
      [
        "i",
        "ld"
      ],
      [
        "may",
        "be"
      ],
      [
        "coll",
        "e"
      ],
      [
        "T",
        "om"
      ],
      [
        "be",
        "a"
      ],
      [
        "be",
        "cause"
      ],
      [
        "some",
        "thing"
      ],
      [
        "B",
        "en"
      ],
      [
        "r",
        "an"
      ],
      [
        "t",
        "a"
      ],
      [
        "e",
        "ven"
      ],
      [
        "col",
        "or"
      ],
      [
        "p",
        "ut"
      ],
      [
        "d",
        "ad"
      ],
      [
        "up",
        "on"
      ],
      [
        "he",
        "d"
      ],
      [
        "he",
        "y"
      ],
      [
        "play",
        "ing"
      ],
      [
        "n",
        "y"
      ],
      [
        "c",
        "lo"
      ],
      [
        "in",
        "to"
      ],
      [
        "f",
        "in"
      ],
      [
        "at",
        "ion"
      ],
      [
        "e",
        "ver"
      ],
      [
        "ho",
        "pe"
      ],
      [
        "s",
        "how"
      ],
      [
        "d",
        "ri"
      ],
      [
        "s",
        "ho"
      ],
      [
        "wh",
        "y"
      ],
      [
        "b",
        "us"
      ],
      [
        "i",
        "le"
      ],
      [
        "li",
        "ving"
      ],
      [
        "an",
        "g"
      ],
      [
        "p",
        "er"
      ],
      [
        "f",
        "er"
      ],
      [
        "ha",
        "ha"
      ],
      [
        "name",
        "d"
      ],
      [
        "m",
        "any"
      ],
      [
        "b",
        "u"
      ],
      [
        "mo",
        "v"
      ],
      [
        "tw",
        "o"
      ],
      [
        "u",
        "ally"
      ],
      [
        "har",
        "d"
      ],
      [
        "b",
        "r"
      ],
      [
        "c",
        "oun"
      ],
      [
        "we",
        "e"
      ],
      [
        "ow",
        "n"
      ],
      [
        "n",
        "ts"
      ],
      [
        "tra",
        "vel"
      ],
      [
        "o",
        "ver"
      ],
      [
        "p",
        "are"
      ],
      [
        "fo",
        "re"
      ],
      [
        "w",
        "ish"
      ],
      [
        "le",
        "ar"
      ],
      [
        "z",
        "z"
      ],
      [
        "t",
        "al"
      ],
      [
        "B",
        "ut"
      ],
      [
        "c",
        "re"
      ],
      [
        "d",
        "i"
      ],
      [
        "a",
        "way"
      ],
      [
        "st",
        "ill"
      ],
      [
        "li",
        "fe"
      ],
      [
        "s",
        "ad"
      ],
      [
        "t",
        "ell"
      ],
      [
        "b",
        "le"
      ],
      [
        "ou",
        "se"
      ],
      [
        "ar",
        "m"
      ],
      [
        "be",
        "ing"
      ],
      [
        "an",
        "ce"
      ],
      [
        "f",
        "ish"
      ],
      [
        "w",
        "r"
      ],
      [
        "b",
        "ir"
      ],
      [
        "bi",
        "es"
      ],
      [
        "b",
        "ad"
      ],
      [
        "st",
        "ud"
      ],
      [
        "inter",
        "est"
      ],
      [
        "w",
        "a"
      ],
      [
        "ke",
        "ep"
      ],
      [
        "f",
        "ind"
      ],
      [
        "ou",
        "ght"
      ],
      [
        "g",
        "l"
      ],
      [
        "hob",
        "bies"
      ],
      [
        "he",
        "ar"
      ],
      [
        "?",
        "\""
      ],
      [
        "ke",
        "n"
      ],
      [
        "ha",
        "ir"
      ],
      [
        "love",
        "d"
      ],
      [
        "ge",
        "ther"
      ],
      [
        "m",
        "ade"
      ],
      [
        "anim",
        "als"
      ],
      [
        "ch",
        "ild"
      ],
      [
        "re",
        "n"
      ],
      [
        "sm",
        "il"
      ],
      [
        "m",
        "ine"
      ],
      [
        "c",
        "t"
      ],
      [
        "h",
        "as"
      ],
      [
        "year",
        "s"
      ],
      [
        "bet",
        "ter"
      ],
      [
        "s",
        "k"
      ],
      [
        "pet",
        "s"
      ],
      [
        "i",
        "g"
      ],
      [
        "c",
        "er"
      ],
      [
        "p",
        "en"
      ],
      [
        "is",
        "e"
      ],
      [
        "af",
        "ter"
      ],
      [
        "pare",
        "nts"
      ],
      [
        "d",
        "r"
      ],
      [
        "to",
        "gether"
      ],
      [
        "i",
        "a"
      ],
      [
        "start",
        "ed"
      ],
      [
        "l",
        "t"
      ],
      [
        "colle",
        "ge"
      ],
      [
        "p",
        "art"
      ],
      [
        "me",
        "nt"
      ],
      [
        "par",
        "k"
      ],
      [
        "do",
        "wn"
      ],
      [
        "Y",
        "ou"
      ],
      [
        "to",
        "y"
      ],
      [
        "work",
        "ing"
      ],
      [
        "any",
        "thing"
      ],
      [
        "ex",
        "cit"
      ],
      [
        "some",
        "times"
      ],
      [
        "ab",
        "le"
      ],
      [
        "oo",
        "ked"
      ],
      [
        "Tim",
        "my"
      ],
      [
        "c",
        "ame"
      ],
      [
        "ok",
        "ay"
      ],
      [
        "interest",
        "ing"
      ],
      [
        "ti",
        "on"
      ],
      [
        "h",
        "ouse"
      ],
      [
        "st",
        "ay"
      ],
      [
        "u",
        "ll"
      ],
      [
        "m",
        "or"
      ],
      [
        "m",
        "ust"
      ],
      [
        "us",
        "ed"
      ],
      [
        "fe",
        "lt"
      ],
      [
        "A",
        "n"
      ],
      [
        "as",
        "ked"
      ],
      [
        "smil",
        "ed"
      ],
      [
        "l",
        "ooked"
      ],
      [
        "ag",
        "ain"
      ],
      [
        "one",
        "y"
      ],
      [
        "t",
        "en"
      ],
      [
        "M",
        "om"
      ],
      [
        "f",
        "t"
      ],
      [
        "lear",
        "n"
      ],
      [
        "g",
        "a"
      ],
      [
        "re",
        "a"
      ],
      [
        "am",
        "a"
      ],
      [
        "ro",
        "w"
      ],
      [
        "to",
        "r"
      ],
      [
        "w",
        "on"
      ],
      [
        "sp",
        "e"
      ],
      [
        "b",
        "er"
      ],
      [
        "watch",
        "ing"
      ],
      [
        "say",
        "s"
      ],
      [
        "as",
        "e"
      ],
      [
        "cat",
        "s"
      ],
      [
        "an",
        "s"
      ],
      [
        "h",
        "at"
      ],
      [
        "lo",
        "w"
      ],
      [
        "v",
        "o"
      ],
      [
        "p",
        "h"
      ],
      [
        "b",
        "ab"
      ],
      [
        "a",
        "ge"
      ],
      [
        "d",
        "y"
      ],
      [
        "l",
        "es"
      ],
      [
        "thank",
        "s"
      ],
      [
        "hi",
        "gh"
      ],
      [
        "g",
        "an"
      ],
      [
        "d",
        "re"
      ],
      [
        "s",
        "ur"
      ],
      [
        "de",
        "c"
      ],
      [
        "s",
        "u"
      ],
      [
        "s",
        "ha"
      ],
      [
        "in",
        "ce"
      ],
      [
        "game",
        "s"
      ],
      [
        "read",
        "ing"
      ],
      [
        "mar",
        "ried"
      ],
      [
        "p",
        "s"
      ],
      [
        "wh",
        "ile"
      ],
      [
        "un",
        "der"
      ],
      [
        "th",
        "o"
      ],
      [
        "d",
        "ra"
      ],
      [
        "p",
        "ain"
      ],
      [
        "t",
        "ball"
      ],
      [
        "p",
        "ers"
      ],
      [
        "p",
        "ic"
      ],
      [
        "ci",
        "al"
      ],
      [
        "st",
        "and"
      ],
      [
        "dri",
        "ve"
      ],
      [
        "out",
        "side"
      ],
      [
        "n",
        "er"
      ],
      [
        "oo",
        "m"
      ],
      [
        "m",
        "on"
      ],
      [
        "m",
        "oney"
      ],
      [
        "ou",
        "d"
      ],
      [
        "bro",
        "ther"
      ],
      [
        "bl",
        "ue"
      ],
      [
        "pi",
        "zz"
      ],
      [
        "get",
        "ting"
      ],
      [
        "ing",
        "s"
      ],
      [
        "book",
        "s"
      ],
      [
        "i",
        "an"
      ],
      [
        "b",
        "it"
      ],
      [
        "ro",
        "ck"
      ],
      [
        "d",
        "a"
      ],
      [
        "s",
        "un"
      ],
      [
        "pizz",
        "a"
      ],
      [
        "cl",
        "ass"
      ],
      [
        "he",
        "ard"
      ],
      [
        "pp",
        "ed"
      ],
      [
        ",",
        "\""
      ],
      [
        "c",
        "le"
      ],
[...]
